{
  "version": "1.0",
  "truncation": null,
  "padding": null,
  "added_tokens": [
    {
      "id": 0,
      "content": "<pad>",
      "single_word": false,
      "lstrip": false,
      "rstrip": false,
      "normalized": false,
      "special": true
    },
    {
      "id": 1,
      "content": "<unk>",
      "single_word": false,
      "lstrip": false,
      "rstrip": false,
      "normalized": false,
      "special": true
    },
    {
      "id": 2,
      "content": "<bos>",
      "single_word": false,
      "lstrip": false,
      "rstrip": false,
      "normalized": false,
      "special": true
    },
    {
      "id": 3,
      "content": "<eos>",
      "single_word": false,
      "lstrip": false,
      "rstrip": false,
      "normalized": false,
      "special": true
    },
    {
      "id": 4,
      "content": "<mask>",
      "single_word": false,
      "lstrip": false,
      "rstrip": false,
      "normalized": false,
      "special": true
    },
    {
      "id": 5,
      "content": "<instruction>",
      "single_word": false,
      "lstrip": false,
      "rstrip": false,
      "normalized": false,
      "special": true
    },
    {
      "id": 6,
      "content": "<input>",
      "single_word": false,
      "lstrip": false,
      "rstrip": false,
      "normalized": false,
      "special": true
    },
    {
      "id": 7,
      "content": "<output>",
      "single_word": false,
      "lstrip": false,
      "rstrip": false,
      "normalized": false,
      "special": true
    }
  ],
  "normalizer": {
    "type": "NFC"
  },
  "pre_tokenizer": {
    "type": "ByteLevel",
    "add_prefix_space": false,
    "trim_offsets": true,
    "use_regex": true
  },
  "post_processor": {
    "type": "TemplateProcessing",
    "single": [
      {
        "SpecialToken": {
          "id": "<bos>",
          "type_id": 0
        }
      },
      {
        "Sequence": {
          "id": "A",
          "type_id": 0
        }
      },
      {
        "SpecialToken": {
          "id": "<eos>",
          "type_id": 0
        }
      }
    ],
    "pair": [
      {
        "SpecialToken": {
          "id": "<bos>",
          "type_id": 0
        }
      },
      {
        "Sequence": {
          "id": "A",
          "type_id": 0
        }
      },
      {
        "SpecialToken": {
          "id": "<eos>",
          "type_id": 0
        }
      },
      {
        "Sequence": {
          "id": "B",
          "type_id": 1
        }
      },
      {
        "SpecialToken": {
          "id": "<eos>",
          "type_id": 1
        }
      }
    ],
    "special_tokens": {
      "<bos>": {
        "id": "<bos>",
        "ids": [
          2
        ],
        "tokens": [
          "<bos>"
        ]
      },
      "<eos>": {
        "id": "<eos>",
        "ids": [
          3
        ],
        "tokens": [
          "<eos>"
        ]
      }
    }
  },
  "decoder": {
    "type": "ByteLevel",
    "add_prefix_space": true,
    "trim_offsets": true,
    "use_regex": true
  },
  "model": {
    "type": "BPE",
    "dropout": null,
    "unk_token": "<unk>",
    "continuing_subword_prefix": null,
    "end_of_word_suffix": null,
    "fuse_unk": false,
    "byte_fallback": false,
    "ignore_merges": false,
    "vocab": {
      "<pad>": 0,
      "<unk>": 1,
      "<bos>": 2,
      "<eos>": 3,
      "<mask>": 4,
      "<instruction>": 5,
      "<input>": 6,
      "<output>": 7,
      "!": 8,
      "\"": 9,
      "#": 10,
      "$": 11,
      "%": 12,
      "&": 13,
      "'": 14,
      "(": 15,
      ")": 16,
      "*": 17,
      "+": 18,
      ",": 19,
      "-": 20,
      ".": 21,
      "/": 22,
      "0": 23,
      "1": 24,
      "2": 25,
      "3": 26,
      "4": 27,
      "5": 28,
      "6": 29,
      "7": 30,
      "8": 31,
      "9": 32,
      ":": 33,
      ";": 34,
      "<": 35,
      "=": 36,
      ">": 37,
      "?": 38,
      "@": 39,
      "A": 40,
      "B": 41,
      "C": 42,
      "D": 43,
      "E": 44,
      "F": 45,
      "G": 46,
      "H": 47,
      "I": 48,
      "J": 49,
      "K": 50,
      "L": 51,
      "M": 52,
      "N": 53,
      "O": 54,
      "P": 55,
      "Q": 56,
      "R": 57,
      "S": 58,
      "T": 59,
      "U": 60,
      "V": 61,
      "W": 62,
      "X": 63,
      "Y": 64,
      "Z": 65,
      "[": 66,
      "\\": 67,
      "]": 68,
      "^": 69,
      "_": 70,
      "`": 71,
      "a": 72,
      "b": 73,
      "c": 74,
      "d": 75,
      "e": 76,
      "f": 77,
      "g": 78,
      "h": 79,
      "i": 80,
      "j": 81,
      "k": 82,
      "l": 83,
      "m": 84,
      "n": 85,
      "o": 86,
      "p": 87,
      "q": 88,
      "r": 89,
      "s": 90,
      "t": 91,
      "u": 92,
      "v": 93,
      "w": 94,
      "x": 95,
      "y": 96,
      "z": 97,
      "{": 98,
      "|": 99,
      "}": 100,
      "~": 101,
      "¡": 102,
      "¢": 103,
      "£": 104,
      "¤": 105,
      "¥": 106,
      "¦": 107,
      "§": 108,
      "¨": 109,
      "©": 110,
      "ª": 111,
      "«": 112,
      "¬": 113,
      "®": 114,
      "¯": 115,
      "°": 116,
      "±": 117,
      "²": 118,
      "³": 119,
      "´": 120,
      "µ": 121,
      "¶": 122,
      "·": 123,
      "¸": 124,
      "¹": 125,
      "º": 126,
      "»": 127,
      "¼": 128,
      "½": 129,
      "¾": 130,
      "¿": 131,
      "À": 132,
      "Á": 133,
      "Â": 134,
      "Ã": 135,
      "Ä": 136,
      "Å": 137,
      "Æ": 138,
      "Ç": 139,
      "È": 140,
      "É": 141,
      "Ê": 142,
      "Ë": 143,
      "Ì": 144,
      "Í": 145,
      "Î": 146,
      "Ï": 147,
      "Ð": 148,
      "Ñ": 149,
      "Ò": 150,
      "Ó": 151,
      "Ô": 152,
      "Õ": 153,
      "Ö": 154,
      "×": 155,
      "Ø": 156,
      "Ù": 157,
      "Ú": 158,
      "Û": 159,
      "Ü": 160,
      "Ý": 161,
      "Þ": 162,
      "ß": 163,
      "à": 164,
      "á": 165,
      "â": 166,
      "ã": 167,
      "ä": 168,
      "å": 169,
      "æ": 170,
      "ç": 171,
      "è": 172,
      "é": 173,
      "ê": 174,
      "ë": 175,
      "ì": 176,
      "í": 177,
      "î": 178,
      "ï": 179,
      "ð": 180,
      "ñ": 181,
      "ò": 182,
      "ó": 183,
      "ô": 184,
      "õ": 185,
      "ö": 186,
      "÷": 187,
      "ø": 188,
      "ù": 189,
      "ú": 190,
      "û": 191,
      "ü": 192,
      "ý": 193,
      "þ": 194,
      "ÿ": 195,
      "Ā": 196,
      "ā": 197,
      "Ă": 198,
      "ă": 199,
      "Ą": 200,
      "ą": 201,
      "Ć": 202,
      "ć": 203,
      "Ĉ": 204,
      "ĉ": 205,
      "Ċ": 206,
      "ċ": 207,
      "Č": 208,
      "č": 209,
      "Ď": 210,
      "ď": 211,
      "Đ": 212,
      "đ": 213,
      "Ē": 214,
      "ē": 215,
      "Ĕ": 216,
      "ĕ": 217,
      "Ė": 218,
      "ė": 219,
      "Ę": 220,
      "ę": 221,
      "Ě": 222,
      "ě": 223,
      "Ĝ": 224,
      "ĝ": 225,
      "Ğ": 226,
      "ğ": 227,
      "Ġ": 228,
      "ġ": 229,
      "Ģ": 230,
      "ģ": 231,
      "Ĥ": 232,
      "ĥ": 233,
      "Ħ": 234,
      "ħ": 235,
      "Ĩ": 236,
      "ĩ": 237,
      "Ī": 238,
      "ī": 239,
      "Ĭ": 240,
      "ĭ": 241,
      "Į": 242,
      "į": 243,
      "İ": 244,
      "ı": 245,
      "Ĳ": 246,
      "ĳ": 247,
      "Ĵ": 248,
      "ĵ": 249,
      "Ķ": 250,
      "ķ": 251,
      "ĸ": 252,
      "Ĺ": 253,
      "ĺ": 254,
      "Ļ": 255,
      "ļ": 256,
      "Ľ": 257,
      "ľ": 258,
      "Ŀ": 259,
      "ŀ": 260,
      "Ł": 261,
      "ł": 262,
      "Ń": 263,
      "ĠĠ": 264,
      "ĠĠĠĠ": 265,
      "ĠĠĠ": 266,
      "ĠĠĠĠĠĠĠĠ": 267,
      "on": 268,
      "in": 269,
      "te": 270,
      "se": 271,
      "st": 272,
      "ĠĠĠĠĠĠĠ": 273,
      "re": 274,
      "ĊĠĠĠĠĠĠĠĠ": 275,
      "de": 276,
      "th": 277,
      "ti": 278,
      "ĊĠĠĠ": 279,
      "le": 280,
      "ĊĠĠĠĠĠĠĠ": 281,
      "or": 282,
      "Ġ\"": 283,
      "ut": 284,
      "Ġa": 285,
      "tion": 286,
      "Ġ=": 287,
      "al": 288,
      "me": 289,
      "Ġi": 290,
      "pe": 291,
      "Ġc": 292,
      "ar": 293,
      "Ġth": 294,
      "ĊĠĠĠĠĠĠĠĠĠĠĠ": 295,
      "Ġf": 296,
      "str": 297,
      "Ġre": 298,
      "Ġthe": 299,
      "ma": 300,
      "er": 301,
      "Ġb": 302,
      "put": 303,
      "nt": 304,
      "def": 305,
      "ĊĠĠĠĠĠĠĠĠĠĠĠĠĠĠĠĠ": 306,
      "ss": 307,
      "ction": 308,
      "Ġp": 309,
      "ge": 310,
      "Ġt": 311,
      "la": 312,
      "ing": 313,
      "Ġin": 314,
      "\":": 315,
      "ser": 316,
      "mp": 317,
      "Ġ`": 318,
      "lf": 319,
      "self": 320,
      "at": 321,
      "test": 322,
      "he": 323,
      "):": 324,
      "ur": 325,
      "ro": 326,
      "an": 327,
      "ue": 328,
      "Ġ'": 329,
      "ce": 330,
      "out": 331,
      "Ġe": 332,
      "un": 333,
      "Ġ{": 334,
      "ame": 335,
      "\",": 336,
      "co": 337,
      "li": 338,
      "ct": 339,
      "ate": 340,
      "ype": 341,
      "Ġo": 342,
      "one": 343,
      "id": 344,
      "Ġas": 345,
      "Ġw": 346,
      "ra": 347,
      "Ġs": 348,
      "no": 349,
      "()": 350,
      "ul": 351,
      "lo": 352,
      "output": 353,
      "ĊĠĠĠĠĠĠĠĠĠĠĠĠĠĠĠ": 354,
      "fi": 355,
      "None": 356,
      "sert": 357,
      "name": 358,
      "Ġis": 359,
      "stru": 360,
      "tur": 361,
      "turn": 362,
      "val": 363,
      "ĊĠĠĠĠĠĠĠĠĠĠĠĠĠĠĠĠĠĠĠĠĠĠĠĠ": 364,
      "__": 365,
      "struction": 366,
      "ter": 367,
      "Ġself": 368,
      "instruction": 369,
      "mo": 370,
      "`.": 371,
      "ri": 372,
      "Ġassert": 373,
      "':": 374,
      "ĠNone": 375,
      "Ġres": 376,
      "che": 377,
      "Ġif": 378,
      "ad": 379,
      "ith": 380,
      "input": 381,
      "ble": 382,
      "Ġreturn": 383,
      "Ġd": 384,
      "xt": 385,
      "si": 386,
      "ke": 387,
      "',": 388,
      "ĊĊĠĠĠ": 389,
      "Ġ(": 390,
      "nd": 391,
      "ap": 392,
      "Ġ-": 393,
      "Ġto": 394,
      "oo": 395,
      "Ġ==": 396,
      "pa": 397,
      "ult": 398,
      "Ġdef": 399,
      "get": 400,
      "ment": 401,
      "ĠP": 402,
      "Ġtest": 403,
      "ation": 404,
      "ine": 405,
      "ĠA": 406,
      "it": 407,
      "},": 408,
      "type": 409,
      "Ġof": 410,
      "),": 411,
      "\"\"": 412,
      "as": 413,
      "vi": 414,
      "not": 415,
      "tem": 416,
      "mple": 417,
      "ĠT": 418,
      "lass": 419,
      "..": 420,
      "el": 421,
      "ror": 422,
      "ch": 423,
      "chema": 424,
      "ĠI": 425,
      "Ġwith": 426,
      "con": 427,
      "Ġ#": 428,
      "ck": 429,
      "int": 430,
      "Ġ->": 431,
      "Ġcon": 432,
      "ption": 433,
      "\")": 434,
      "Ġbe": 435,
      "Ġfor": 436,
      "(\"": 437,
      "pon": 438,
      "value": 439,
      "Ġ[": 440,
      "Re": 441,
      "ĊĊĠĠĠĠĠĠĠ": 442,
      "Ġco": 443,
      "od": 444,
      "ata": 445,
      "ponse": 446,
      "um": 447,
      "der": 448,
      "ted": 449,
      "unction": 450,
      "ne": 451,
      "Ġex": 452,
      "Ġstr": 453,
      "di": 454,
      "up": 455,
      "ver": 456,
      "able": 457,
      "Ġ1": 458,
      "ve": 459,
      "Ġ)": 460,
      "ĊĠĠĠĠĠĠĠĠĠĠĠĠĠĠĠĠĠĠĠ": 461,
      "schema": 462,
      "ex": 463,
      "Ġfunction": 464,
      "Ġh": 465,
      "ase": 466,
      "py": 467,
      "Er": 468,
      "Co": 469,
      "Error": 470,
      "Ġm": 471,
      "ĊĠĠĠĠĠĠĠĠĠĠĠĠĠĠĠĠĠĠĠĠĠĠĠ": 472,
      "Ġu": 473,
      "is": 474,
      "to": 475,
      "text": 476,
      "rue": 477,
      "('": 478,
      "ort": 479,
      "Ġnot": 480,
      "thon": 481,
      "par": 482,
      "')": 483,
      "per": 484,
      "Ġ\"\"\"": 485,
      "il": 486,
      "item": 487,
      "class": 488,
      "son": 489,
      "ile": 490,
      "Ġresponse": 491,
      "qu": 492,
      "Ġ_": 493,
      "am": 494,
      "Ġde": 495,
      "Ġma": 496,
      "00": 497,
      "Ġmo": 498,
      "Ġand": 499,
      "Ġresult": 500,
      "],": 501,
      "Ġse": 502,
      "del": 503,
      "line": 504,
      "gs": 505,
      "mage": 506,
      "ent": 507,
      "key": 508,
      "():": 509,
      "rom": 510,
      "Ġtype": 511,
      "en": 512,
      "path": 513,
      "ha": 514,
      "ses": 515,
      "ĊĠĠĠĠĠĠĠĠĠĠĠĠĠĠĠĠĠĠĠĠĠĠĠĠĠĠĠĠĠĠĠ": 516,
      "._": 517,
      "Ġ},": 518,
      "eld": 519,
      "ĠPy": 520,
      "all": 521,
      "oc": 522,
      "ody": 523,
      "tit": 524,
      "ze": 525,
      "json": 526,
      "Ġ2": 527,
      "))": 528,
      "ĠS": 529,
      "ĠF": 530,
      "ated": 531,
      "ĊĠĠĠĠĠĠĠĠĠĠĠĠĠĠĠĠĠĠĠĠĠĠĠĠĠĠĠ": 532,
      "for": 533,
      "lient": 534,
      "res": 535,
      "po": 536,
      "Ġ{'": 537,
      "Ġst": 538,
      "valid": 539,
      "Ġpa": 540,
      "havi": 541,
      "Ġ0": 542,
      "havior": 543,
      "--": 544,
      "Ġbehavior": 545,
      "âĶ": 546,
      "pen": 547,
      "pro": 548,
      "red": 549,
      "Ġpar": 550,
      "ĠPython": 551,
      "que": 552,
      "Ġ:": 553,
      "file": 554,
      "title": 555,
      "code": 556,
      "Ġvalue": 557,
      "ion": 558,
      "nc": 559,
      "app": 560,
      "Ġ..": 561,
      "bj": 562,
      "fo": 563,
      "Ex": 564,
      "alse": 565,
      "fig": 566,
      "De": 567,
      "Val": 568,
      "ts": 569,
      "fa": 570,
      "Ġbody": 571,
      "tes": 572,
      "sion": 573,
      "rai": 574,
      "ĠU": 575,
      "Ġ*": 576,
      "Ġby": 577,
      "mport": 578,
      "est": 579,
      "Ġ|": 580,
      "ure": 581,
      "tt": 582,
      "cl": 583,
      "ho": 584,
      "ny": 585,
      "ary": 586,
      "sc": 587,
      "us": 588,
      "lum": 589,
      "pla": 590,
      "ĠM": 591,
      "ĊĠĠĠĠĠĠĠĠĠĠĠĠĠĠĠĠĠĠĠĠĠĠĠĠĠĠĠĠĠĠĠĠ": 592,
      "Ġ{\"": 593,
      "Ġpy": 594,
      "lumn": 595,
      "ect": 596,
      "ali": 597,
      "PI": 598,
      "age": 599,
      "and": 600,
      "Ġch": 601,
      "ance": 602,
      "ed": 603,
      "mplement": 604,
      "Ġint": 605,
      "Ġ...": 606,
      "tr": 607,
      "Ġor": 608,
      "so": 609,
      "::": 610,
      "ameter": 611,
      "ta": 612,
      "pre": 613,
      "Ġel": 614,
      "items": 615,
      "Ġr": 616,
      "ync": 617,
      "ub": 618,
      "ool": 619,
      "Ġelse": 620,
      "])": 621,
      "True": 622,
      "time": 623,
      "ĠC": 624,
      "âĶĢ": 625,
      "ator": 626,
      "Ġ}": 627,
      "Ġpro": 628,
      "ly": 629,
      "es": 630,
      "list": 631,
      "args": 632,
      "data": 633,
      "Ġme": 634,
      "ield": 635,
      "ĠO": 636,
      "pec": 637,
      "=\"": 638,
      "ger": 639,
      "ration": 640,
      "ig": 641,
      "Ġ+": 642,
      "âĶĢâĶĢ": 643,
      "ault": 644,
      "set": 645,
      "ctor": 646,
      "ssion": 647,
      "Ġit": 648,
      "Ġg": 649,
      "bject": 650,
      "Ġ__": 651,
      "ĠRe": 652,
      "param": 653,
      "ner": 654,
      "table": 655,
      "iss": 656,
      "version": 657,
      "ow": 658,
      "lect": 659,
      "mon": 660,
      "len": 661,
      "Ġdi": 662,
      "rint": 663,
      "quest": 664,
      "tent": 665,
      "stance": 666,
      "Valid": 667,
      "Ġwithout": 668,
      "Ġim": 669,
      "und": 670,
      "Ġclass": 671,
      "Ġname": 672,
      "ug": 673,
      "com": 674,
      "raise": 675,
      "dd": 676,
      "ule": 677,
      "user": 678,
      "Ġlo": 679,
      "comp": 680,
      "im": 681,
      "='": 682,
      "Ġimport": 683,
      "ded": 684,
      "issing": 685,
      "mplete": 686,
      "scri": 687,
      "string": 688,
      "open": 689,
      "error": 690,
      "mat": 691,
      "api": 692,
      "tic": 693,
      "cess": 694,
      "foo": 695,
      "Ġn": 696,
      "Ġy": 697,
      "Ġfrom": 698,
      "Ġchan": 699,
      "Ġdata": 700,
      ").": 701,
      "ack": 702,
      "ging": 703,
      "qui": 704,
      "rent": 705,
      "ument": 706,
      "Ġraise": 707,
      "ff": 708,
      "peration": 709,
      "info": 710,
      "ĠCo": 711,
      "odel": 712,
      "ery": 713,
      "Implement": 714,
      "ist": 715,
      ".__": 716,
      "date": 717,
      "ameters": 718,
      "plain": 719,
      "Ġne": 720,
      "thod": 721,
      "ader": 722,
      "ĠTrue": 723,
      "monstr": 724,
      "read": 725,
      "ined": 726,
      "ref": 727,
      "add": 728,
      "ip": 729,
      "cep": 730,
      "Ġfile": 731,
      "ĠAPI": 732,
      "map": 733,
      "ute": 734,
      "`,": 735,
      "Ġen": 736,
      "Ġprint": 737,
      "ken": 738,
      "Ġar": 739,
      "Ġmissing": 740,
      "In": 741,
      "form": 742,
      "Test": 743,
      "Ġv": 744,
      "ec": 745,
      "col": 746,
      "factor": 747,
      "Ġan": 748,
      "Ġbool": 749,
      "Ġline": 750,
      "Ġclient": 751,
      "pected": 752,
      "ix": 753,
      "Ġpytest": 754,
      "__(": 755,
      "Type": 756,
      "Complete": 757,
      "by": 758,
      "Explain": 759,
      "Validation": 760,
      "Ġget": 761,
      "ty": 762,
      "from": 763,
      "nection": 764,
      "hel": 765,
      "ĠIt": 766,
      "atus": 767,
      "Ġinto": 768,
      "mod": 769,
      "lear": 770,
      "reate": 771,
      "unc": 772,
      "scription": 773,
      "Base": 774,
      "Ġ@": 775,
      "ound": 776,
      "Con": 777,
      "quired": 778,
      "size": 779,
      "Model": 780,
      "Ġ3": 781,
      "clu": 782,
      "Ġx": 783,
      "content": 784,
      "config": 785,
      "Ġon": 786,
      "appe": 787,
      "ht": 788,
      "Ġal": 789,
      "Ġcomp": 790,
      "sg": 791,
      "sed": 792,
      "ĠFalse": 793,
      "cla": 794,
      "uple": 795,
      "with": 796,
      "low": 797,
      "instance": 798,
      "Ġthis": 799,
      "op": 800,
      "ĠD": 801,
      "query": 802,
      "}}": 803,
      "ĠImage": 804,
      "Ġclear": 805,
      "Ġso": 806,
      "gument": 807,
      "Ġthat": 808,
      "Ġpass": 809,
      "dern": 810,
      "ic": 811,
      "Ġmodern": 812,
      "init": 813,
      "Ġchanging": 814,
      "default": 815,
      "Ġun": 816,
      "ord": 817,
      "Refactor": 818,
      "ĊĠĠĠĠĠĠĠĠĠĠĠĠĠĠĠĠĠĠĠĠĠĠĠĠĠĠĠĠĠĠĠĠĠĠĠ": 819,
      "Ġlist": 820,
      "\"},": 821,
      "urce": 822,
      "Ġno": 823,
      "False": 824,
      "Ġkey": 825,
      "ust": 826,
      "kw": 827,
      "status": 828,
      "model": 829,
      "andle": 830,
      "Ġparameters": 831,
      "[\"": 832,
      "ptional": 833,
      "async": 834,
      "ĠAny": 835,
      "Ġoperation": 836,
      "Ġdefined": 837,
      "lic": 838,
      "field": 839,
      "arn": 840,
      "ĠH": 841,
      "Ġap": 842,
      "pytest": 843,
      "mode": 844,
      "url": 845,
      "ptions": 846,
      "mb": 847,
      "ee": 848,
      "\"\"\"": 849,
      "ValidationError": 850,
      "row": 851,
      "ac": 852,
      "xture": 853,
      "]:": 854,
      "Ġuser": 855,
      "load": 856,
      "mary": 857,
      "Ġac": 858,
      "ath": 859,
      "ĊĊĠĠĠĠĠĠĠĠĠĠĠ": 860,
      "header": 861,
      "ssage": 862,
      "ys": 863,
      "rite": 864,
      "xx": 865,
      "ĠĠĠĠĠĠĠĠĠĠĠĠĠĠĠĠ": 866,
      "ot": 867,
      "ren": 868,
      "ample": 869,
      "attr": 870,
      "dex": 871,
      "Ġitem": 872,
      "dan": 873,
      "dantic": 874,
      "pr": 875,
      "ther": 876,
      "vel": 877,
      "ding": 878,
      "nts": 879,
      "ttp": 880,
      "ĠUse": 881,
      "ark": 882,
      "_(": 883,
      "ange": 884,
      "description": 885,
      "Ġtr": 886,
      "Ġoperations": 887,
      "ĠPer": 888,
      "Ġ/": 889,
      "Ġdoc": 890,
      "ĠThe": 891,
      "openapi": 892,
      "cur": 893,
      ":`": 894,
      "port": 895,
      "spa": 896,
      "teger": 897,
      "loc": 898,
      "\"]": 899,
      "uld": 900,
      "dict": 901,
      "update": 902,
      "ind": 903,
      "Ġexpected": 904,
      "Ġvi": 905,
      "jo": 906,
      "sole": 907,
      "Ġbound": 908,
      "ings": 909,
      "(),": 910,
      "Ġ4": 911,
      "idth": 912,
      "ext": 913,
      "et": 914,
      "ception": 915,
      "ĠPerform": 916,
      "ĠB": 917,
      "Ġhow": 918,
      "Ġtime": 919,
      "adata": 920,
      "ast": 921,
      "ls": 922,
      "aa": 923,
      "Ġisinstance": 924,
      "Ġ``": 925,
      "['": 926,
      "ill": 927,
      "tri": 928,
      "Ġuses": 929,
      "python": 930,
      "notated": 931,
      "clude": 932,
      "ans": 933,
      "wa": 934,
      "yle": 935,
      "ĠReturn": 936,
      "run": 937,
      "cls": 938,
      "doc": 939,
      "Ġ**": 940,
      "ON": 941,
      "Image": 942,
      "ql": 943,
      "Ġset": 944,
      "Add": 945,
      "object": 946,
      "gener": 947,
      "{'": 948,
      "den": 949,
      "âĶĢâĶĢâĶĢâĶĢ": 950,
      "LE": 951,
      "alias": 952,
      "tadata": 953,
      "})": 954,
      "lable": 955,
      "Ġ%": 956,
      "ĠAn": 957,
      "monstrate": 958,
      "unt": 959,
      "ber": 960,
      "ĠTest": 961,
      "exec": 962,
      "Demonstrate": 963,
      "12": 964,
      "ĠN": 965,
      "cor": 966,
      "TE": 967,
      "Ġcase": 968,
      "sh": 969,
      "----": 970,
      "lif": 971,
      "request": 972,
      "ĠColumn": 973,
      "User": 974,
      "msg": 975,
      "Ġsho": 976,
      "orm": 977,
      "Ġlen": 978,
      "mand": 979,
      "validate": 980,
      "ave": 981,
      "Ġobject": 982,
      "loat": 983,
      "space": 984,
      "append": 985,
      "umber": 986,
      "Ġcol": 987,
      "proper": 988,
      "Ġle": 989,
      "ol": 990,
      "gine": 991,
      "Ġinput": 992,
      "ress": 993,
      "Ġelif": 994,
      "ped": 995,
      "Ġconfig": 996,
      "uted": 997,
      "Ġprovi": 998,
      "ten": 999,
      "pri": 1000,
      "atch": 1001,
      "TT": 1002,
      "om": 1003,
      "back": 1004,
      "dent": 1005,
      "post": 1006,
      "client": 1007,
      "Ġla": 1008,
      "help": 1009,
      "Ġ[\"": 1010,
      "rable": 1011,
      "ints": 1012,
      "Any": 1013,
      "required": 1014,
      "cept": 1015,
      "Ġfield": 1016,
      "fix": 1017,
      "Ġuse": 1018,
      "raises": 1019,
      "sub": 1020,
      "ĠW": 1021,
      "ĠĠĠĠĠĠĠĠĠĠĠ": 1022,
      "ache": 1023,
      "//": 1024,
      "dir": 1025,
      "ity": 1026,
      "']": 1027,
      "Ġdefault": 1028,
      "image": 1029,
      "column": 1030,
      "ĠAnnotated": 1031,
      "mit": 1032,
      "ild": 1033,
      "{\"": 1034,
      "ally": 1035,
      "Ġeq": 1036,
      "gth": 1037,
      "10": 1038,
      "TTP": 1039,
      "Ġvisi": 1040,
      "my": 1041,
      "ping": 1042,
      "join": 1043,
      "lication": 1044,
      "word": 1045,
      "Client": 1046,
      "onents": 1047,
      "ST": 1048,
      "Ġrun": 1049,
      "Ġ200": 1050,
      "ict": 1051,
      "Ġpre": 1052,
      "schemas": 1053,
      "if": 1054,
      "\"),": 1055,
      "Ġprovided": 1056,
      "method": 1057,
      "Value": 1058,
      "mark": 1059,
      "Ġapp": 1060,
      "IN": 1061,
      "mt": 1062,
      "bar": 1063,
      "response": 1064,
      "Ġerror": 1065,
      "func": 1066,
      "components": 1067,
      "sp": 1068,
      "sses": 1069,
      "ER": 1070,
      "bu": 1071,
      "state": 1072,
      "uth": 1073,
      "ĠL": 1074,
      "assert": 1075,
      "API": 1076,
      "nted": 1077,
      "token": 1078,
      "rap": 1079,
      "ĠIn": 1080,
      "Ġimplement": 1081,
      "Ġmethod": 1082,
      "use": 1083,
      "ard": 1084,
      "tive": 1085,
      "min": 1086,
      "Ġwe": 1087,
      "En": 1088,
      "Ġnew": 1089,
      "Ġpath": 1090,
      "sho": 1091,
      "heck": 1092,
      "Ġcomputed": 1093,
      "Ġmat": 1094,
      "sponse": 1095,
      "Ġtext": 1096,
      "ĠPath": 1097,
      "sk": 1098,
      "ght": 1099,
      "ir": 1100,
      "base": 1101,
      "raw": 1102,
      "module": 1103,
      "temp": 1104,
      "Ġyield": 1105,
      "File": 1106,
      "call": 1107,
      "kwargs": 1108,
      "==": 1109,
      "Ġwh": 1110,
      "iali": 1111,
      "ab": 1112,
      "Ġimplementation": 1113,
      "ream": 1114,
      "main": 1115,
      "alect": 1116,
      "ive": 1117,
      "Ġwill": 1118,
      "zer": 1119,
      "ties": 1120,
      "Ġ),": 1121,
      "tional": 1122,
      "let": 1123,
      "Ġschema": 1124,
      "Ġvalues": 1125,
      "lines": 1126,
      "Ġdict": 1127,
      "lib": 1128,
      "Ġvisible": 1129,
      "application": 1130,
      "ron": 1131,
      "Ġ!": 1132,
      "RG": 1133,
      "tester": 1134,
      "import": 1135,
      "Ġ<": 1136,
      "``": 1137,
      "Ġexist": 1138,
      "Ġtry": 1139,
      "Ġbug": 1140,
      "his": 1141,
      "\"}": 1142,
      "Ġsub": 1143,
      "Ġstate": 1144,
      "://": 1145,
      "ĠTestClient": 1146,
      "Ġconnection": 1147,
      "Ġshould": 1148,
      "led": 1149,
      "(\"/": 1150,
      "Ġ!=": 1151,
      "Ġhints": 1152,
      "cepts": 1153,
      "Fix": 1154,
      "format": 1155,
      "ĊĠĠĠĠĠĠĠĠĠĠĠĠĠĠĠĠĠĠĠĠĠĠĠĠĠĠĠĠĠĠĠĠĠĠĠĠĠĠĠ": 1156,
      "ray": 1157,
      "ize": 1158,
      "Ġversion": 1159,
      "Ġfoo": 1160,
      "classes": 1161,
      "count": 1162,
      "roup": 1163,
      "ĠDe": 1164,
      "var": 1165,
      "ook": 1166,
      "Ġ]": 1167,
      "Ġdemonstr": 1168,
      "rect": 1169,
      "Ġdemonstrated": 1170,
      "Ġmatch": 1171,
      "bo": 1172,
      "Ġare": 1173,
      ".\"\"\"": 1174,
      "Ġid": 1175,
      "write": 1176,
      "db": 1177,
      "core": 1178,
      "session": 1179,
      "http": 1180,
      "arg": 1181,
      "Ġmax": 1182,
      "Ġaccepts": 1183,
      "Ġmod": 1184,
      "'},": 1185,
      "da": 1186,
      "Se": 1187,
      "Ġcom": 1188,
      "du": 1189,
      "Ġwhe": 1190,
      "Ġmode": 1191,
      "'),": 1192,
      "Ġ>": 1193,
      "Ġpo": 1194,
      "ĠR": 1195,
      "HTTP": 1196,
      "}\")": 1197,
      "Ġtable": 1198,
      "new": 1199,
      "ĠCon": 1200,
      "Ġexcept": 1201,
      "ĠOptional": 1202,
      "BaseModel": 1203,
      "mapper": 1204,
      "fixture": 1205,
      "Ġcontext": 1206,
      "Ġtuple": 1207,
      "ĠType": 1208,
      "ful": 1209,
      "af": 1210,
      "art": 1211,
      "RGB": 1212,
      "max": 1213,
      "width": 1214,
      "xi": 1215,
      "create": 1216,
      "cre": 1217,
      "Ġcls": 1218,
      "Ġasync": 1219,
      "ĠIts": 1220,
      "ci": 1221,
      "log": 1222,
      "bytes": 1223,
      "headers": 1224,
      "ValueError": 1225,
      "uto": 1226,
      "Ġsu": 1227,
      "lation": 1228,
      "process": 1229,
      "wait": 1230,
      "ant": 1231,
      "style": 1232,
      "options": 1233,
      "Ġ('": 1234,
      "ulti": 1235,
      "tail": 1236,
      "Ġlog": 1237,
      "\\\\": 1238,
      "Ġcheck": 1239,
      "length": 1240,
      "('/": 1241,
      "Ġcan": 1242,
      "ft": 1243,
      "\"],": 1244,
      "Ġbase": 1245,
      "Ġhas": 1246,
      "vo": 1247,
      "Ġ5": 1248,
      "((": 1249,
      "())": 1250,
      "Ġcall": 1251,
      "Ġmap": 1252,
      "notation": 1253,
      "andler": 1254,
      "allable": 1255,
      "Ġl": 1256,
      "any": 1257,
      "index": 1258,
      "nce": 1259,
      "late": 1260,
      "OM": 1261,
      "Ġread": 1262,
      "ĠSe": 1263,
      "Item": 1264,
      "Ġsess": 1265,
      "Ġstring": 1266,
      "repr": 1267,
      "#/": 1268,
      "'}": 1269,
      "right": 1270,
      "Ġargs": 1271,
      "ttri": 1272,
      "inal": 1273,
      "ustom": 1274,
      "ĠUser": 1275,
      ":`_": 1276,
      "cli": 1277,
      "coding": 1278,
      "ume": 1279,
      "validation": 1280,
      "lug": 1281,
      "arget": 1282,
      "ĠG": 1283,
      "Ġsource": 1284,
      "Ġexc": 1285,
      "command": 1286,
      "its": 1287,
      "ou": 1288,
      "meth": 1289,
      "01": 1290,
      "example": 1291,
      "Ġpri": 1292,
      "Ġcases": 1293,
      "pydantic": 1294,
      "be": 1295,
      "root": 1296,
      "Ġexisting": 1297,
      "prec": 1298,
      "array": 1299,
      "Ġ[]": 1300,
      "tern": 1301,
      "lement": 1302,
      "docs": 1303,
      "Exception": 1304,
      "sum": 1305,
      "'t": 1306,
      "alled": 1307,
      "place": 1308,
      "ok": 1309,
      "select": 1310,
      "users": 1311,
      "lection": 1312,
      "message": 1313,
      "ew": 1314,
      "Ġmain": 1315,
      "sor": 1316,
      "extra": 1317,
      "seriali": 1318,
      "ager": 1319,
      "Ġ`_": 1320,
      "lugin": 1321,
      "pect": 1322,
      "ixture": 1323,
      "42": 1324,
      "sing": 1325,
      "OR": 1326,
      "parent": 1327,
      "argument": 1328,
      "quence": 1329,
      "Ar": 1330,
      "Ġtyper": 1331,
      "match": 1332,
      "::::": 1333,
      "Ġ.": 1334,
      "Ġdo": 1335,
      "iter": 1336,
      "Ġ(\"": 1337,
      "ditional": 1338,
      "SE": 1339,
      "tity": 1340,
      "Ġfloat": 1341,
      "Ġrequest": 1342,
      "values": 1343,
      "HTTPValidationError": 1344,
      "warn": 1345,
      "bb": 1346,
      "bute": 1347,
      "execute": 1348,
      "tables": 1349,
      "ĠAS": 1350,
      "Ġ\\": 1351,
      "lock": 1352,
      "properties": 1353,
      "connection": 1354,
      "prese": 1355,
      "ore": 1356,
      "ey": 1357,
      "tra": 1358,
      "lete": 1359,
      "Ġmodel": 1360,
      "Ġmetadata": 1361,
      "ori": 1362,
      "Ġcolumn": 1363,
      "]]": 1364,
      "zation": 1365,
      "here": 1366,
      "ng": 1367,
      "lit": 1368,
      "als": 1369,
      "Ġ12": 1370,
      "200": 1371,
      "result": 1372,
      "color": 1373,
      "struct": 1374,
      "().": 1375,
      "Key": 1376,
      "ccess": 1377,
      "rc": 1378,
      "check": 1379,
      "Ġdecor": 1380,
      "order": 1381,
      "Ġall": 1382,
      "her": 1383,
      "astAPI": 1384,
      "tring": 1385,
      "tain": 1386,
      "fp": 1387,
      "Ġparam": 1388,
      "ĠThis": 1389,
      ")]": 1390,
      "Pro": 1391,
      "md": 1392,
      "ĠJ": 1393,
      "vent": 1394,
      "rame": 1395,
      "Ġused": 1396,
      "Ġau": 1397,
      "Ġunit": 1398,
      "Ġcode": 1399,
      "return": 1400,
      "Un": 1401,
      "Ġimage": 1402,
      "apped": 1403,
      "Foo": 1404,
      "Ġ],": 1405,
      "stra": 1406,
      "engine": 1407,
      "resses": 1408,
      "liary": 1409,
      "ull": 1410,
      "xiliary": 1411,
      "Ġrange": 1412,
      "lette": 1413,
      "Ġcur": 1414,
      "Ġauxiliary": 1415,
      "ĠResponse": 1416,
      "pi": 1417,
      "clared": 1418,
      "ste": 1419,
      "mpl": 1420,
      "rati": 1421,
      "St": 1422,
      "Ġtoken": 1423,
      "16": 1424,
      "Ġ+=": 1425,
      "Me": 1426,
      "ml": 1427,
      "nore": 1428,
      "ory": 1429,
      "stream": 1430,
      "reg": 1431,
      "55": 1432,
      "ld": 1433,
      "**": 1434,
      "function": 1435,
      "depen": 1436,
      "derable": 1437,
      "CT": 1438,
      "Ġite": 1439,
      "Ġreprese": 1440,
      "Ġadd": 1441,
      "iled": 1442,
      "Ġli": 1443,
      "ĠPro": 1444,
      "Ġawait": 1445,
      "Ġinstance": 1446,
      "Ġmay": 1447,
      "cache": 1448,
      "fil": 1449,
      "side": 1450,
      "operation": 1451,
      "Ġgener": 1452,
      "Ġother": 1453,
      "voke": 1454,
      "validator": 1455,
      "summary": 1456,
      "Ġconsole": 1457,
      "ay": 1458,
      "ces": 1459,
      "xxxx": 1460,
      "ign": 1461,
      "pend": 1462,
      "shot": 1463,
      "Ġbytes": 1464,
      "context": 1465,
      "ich": 1466,
      "mbda": 1467,
      "'s": 1468,
      "cope": 1469,
      "cc": 1470,
      "ĠE": 1471,
      "RE": 1472,
      "point": 1473,
      "ork": 1474,
      "exit": 1475,
      "obj": 1476,
      "tuple": 1477,
      "tin": 1478,
      "Ġ['": 1479,
      "dout": 1480,
      "sync": 1481,
      "ong": 1482,
      "ai": 1483,
      "ont": 1484,
      "number": 1485,
      "Ġwhen": 1486,
      "ak": 1487,
      "Hel": 1488,
      "Ġdeclared": 1489,
      "params": 1490,
      "level": 1491,
      "Par": 1492,
      "Ġhttp": 1493,
      "[_": 1494,
      "Ġfa": 1495,
      "aaaa": 1496,
      "ink": 1497,
      "Id": 1498,
      "nap": 1499,
      "Ġchange": 1500,
      "Ġ\"#/": 1501,
      "Ġsession": 1502,
      "parse": 1503,
      "Ġat": 1504,
      "metadata": 1505,
      "}\"": 1506,
      "imum": 1507,
      "123": 1508,
      "move": 1509,
      "ini": 1510,
      "node": 1511,
      "igh": 1512,
      "QL": 1513,
      "Ġusers": 1514,
      "56": 1515,
      "Ġq": 1516,
      "Ġcreate": 1517,
      "Ġprimary": 1518,
      "utf": 1519,
      "\"):": 1520,
      "fn": 1521,
      "ies": 1522,
      "Ġfunc": 1523,
      "ctx": 1524,
      "ĠItem": 1525,
      "Ġlines": 1526,
      "Ġ):": 1527,
      "uccess": 1528,
      "some": 1529,
      "clo": 1530,
      "Ġrow": 1531,
      "An": 1532,
      "cond": 1533,
      "SON": 1534,
      "pt": 1535,
      "Ġjson": 1536,
      "âĶĢâĶĢâĶĢâĶĢâĶĢâĶĢâĶĢâĶĢ": 1537,
      "napshot": 1538,
      "cho": 1539,
      "11": 1540,
      "}')": 1541,
      "ph": 1542,
      "Ġty": 1543,
      "Ġos": 1544,
      "Ġpytester": 1545,
      "AR": 1546,
      "eeee": 1547,
      "ĠĠĠĠĠĠĠĠĠĠĠĠĠĠĠ": 1548,
      "Ġcore": 1549,
      "Ġ10": 1550,
      "Ġren": 1551,
      "are": 1552,
      "Ġinputs": 1553,
      "Hello": 1554,
      "Class": 1555,
      "compile": 1556,
      "Data": 1557,
      "Ġattri": 1558,
      "uff": 1559,
      "ax": 1560,
      "split": 1561,
      "Ġout": 1562,
      "Ġwarn": 1563,
      "body": 1564,
      "invoke": 1565,
      "ĠInteger": 1566,
      ")),": 1567,
      "Ġsys": 1568,
      "pack": 1569,
      "Ġmsg": 1570,
      "vely": 1571,
      "rich": 1572,
      "group": 1573,
      "apt": 1574,
      "32": 1575,
      "peci": 1576,
      "ĊĠĠĠĠĠĠĠĠĠĠĠĠĠĠĠĠĠĠĠĠĠĠĠĠĠĠĠĠĠĠĠĠĠĠĠĠĠĠĠĠĠĠĠ": 1577,
      "ĠMapped": 1578,
      "Ġrunner": 1579,
      "Dict": 1580,
      "odule": 1581,
      "print": 1582,
      "responses": 1583,
      "yn": 1584,
      "ship": 1585,
      "uid": 1586,
      "pth": 1587,
      "Ġ\"/": 1588,
      "fore": 1589,
      "fir": 1590,
      "ttings": 1591,
      "The": 1592,
      "Ġoutput": 1593,
      "Ġformat": 1594,
      "Ġselect": 1595,
      "Ġcomple": 1596,
      "Ġargument": 1597,
      "lationship": 1598,
      "fault": 1599,
      "hello": 1600,
      "alize": 1601,
      "Ġig": 1602,
      "Ġrepresented": 1603,
      "Qu": 1604,
      "ĠValueError": 1605,
      "Ġsize": 1606,
      "names": 1607,
      "Ġj": 1608,
      "ĠHandle": 1609,
      "lob": 1610,
      "Ġend": 1611,
      "Ġdecorated": 1612,
      "Ġcalled": 1613,
      "Ġk": 1614,
      "Ġarg": 1615,
      "Ġconditional": 1616,
      "Ġnode": 1617,
      "wrap": 1618,
      "annotation": 1619,
      "Ġta": 1620,
      "Ġali": 1621,
      "nect": 1622,
      "filter": 1623,
      "ight": 1624,
      "precated": 1625,
      "over": 1626,
      "pression": 1627,
      "emp": 1628,
      "Ġwidth": 1629,
      "Ġdocument": 1630,
      "irst": 1631,
      "uccessful": 1632,
      "ures": 1633,
      "fe": 1634,
      "viron": 1635,
      "orted": 1636,
      "Ġstmt": 1637,
      "ĠIf": 1638,
      "Ġenv": 1639,
      "username": 1640,
      "operationId": 1641,
      "Ġ\"$": 1642,
      "Ġbar": 1643,
      "Request": 1644,
      "([": 1645,
      "Successful": 1646,
      "ĠUn": 1647,
      "alar": 1648,
      "Ġnumber": 1649,
      "Of": 1650,
      "man": 1651,
      "trans": 1652,
      "paths": 1653,
      "stdout": 1654,
      "\"{": 1655,
      "bool": 1656,
      "Ġtra": 1657,
      "Ġcolor": 1658,
      "ep": 1659,
      "--------": 1660,
      "Ġcontent": 1661,
      "ource": 1662,
      "mail": 1663,
      "ush": 1664,
      "ous": 1665,
      "gment": 1666,
      "parameters": 1667,
      "Ġwhich": 1668,
      "patch": 1669,
      "wn": 1670,
      "rol": 1671,
      "property": 1672,
      "ĠTable": 1673,
      "posi": 1674,
      "save": 1675,
      "exc": 1676,
      "types": 1677,
      "ratively": 1678,
      "we": 1679,
      "Ġ8": 1680,
      "\"])": 1681,
      "expected": 1682,
      "Ġindex": 1683,
      "Ġstyle": 1684,
      "only": 1685,
      "\"))": 1686,
      "utable": 1687,
      "round": 1688,
      "ImageFile": 1689,
      "20": 1690,
      "âĶģ": 1691,
      "images": 1692,
      "own": 1693,
      "48": 1694,
      "FastAPI": 1695,
      "ers": 1696,
      "Ġ6": 1697,
      ")):": 1698,
      "io": 1699,
      "gra": 1700,
      "AL": 1701,
      "sql": 1702,
      "fields": 1703,
      "Ġsnapshot": 1704,
      "xy": 1705,
      "ash": 1706,
      "Ġmessage": 1707,
      "}}},": 1708,
      "end": 1709,
      "Ġconn": 1710,
      "ĠSchema": 1711,
      "Write": 1712,
      "Ġitems": 1713,
      "Option": 1714,
      "].": 1715,
      "=[": 1716,
      "insert": 1717,
      "Ġrele": 1718,
      "Input": 1719,
      "acter": 1720,
      "Argument": 1721,
      "dialect": 1722,
      "aracter": 1723,
      "Ġparameter": 1724,
      "ixel": 1725,
      "Ġonly": 1726,
      "pose": 1727,
      "Ġsuper": 1728,
      "Ġdis": 1729,
      "ree": 1730,
      "ener": 1731,
      "qual": 1732,
      "xtra": 1733,
      "====": 1734,
      "Ġstruct": 1735,
      "auth": 1736,
      "cs": 1737,
      "ide": 1738,
      "invalid": 1739,
      "Ġdocumentation": 1740,
      "float": 1741,
      "auto": 1742,
      "orph": 1743,
      ":`.": 1744,
      "Path": 1745,
      "istr": 1746,
      "https": 1747,
      "Name": 1748,
      "source": 1749,
      "sys": 1750,
      "ctory": 1751,
      "ject": 1752,
      "DE": 1753,
      "close": 1754,
      "ametri": 1755,
      "Ġhelp": 1756,
      "multi": 1757,
      "Ġmust": 1758,
      "testing": 1759,
      "Ġfirst": 1760,
      "tinue": 1761,
      "Ġmodule": 1762,
      "Ġhave": 1763,
      "src": 1764,
      "No": 1765,
      "Ġload": 1766,
      "first": 1767,
      "Ġmy": 1768,
      "ME": 1769,
      "bel": 1770,
      "Ġignore": 1771,
      "do": 1772,
      "Ġtyping": 1773,
      "...": 1774,
      "Context": 1775,
      "Ġany": 1776,
      "iven": 1777,
      "Ġ{}": 1778,
      "case": 1779,
      "Ġone": 1780,
      "commit": 1781,
      "Ġencoding": 1782,
      "delete": 1783,
      "star": 1784,
      "Ġcurrent": 1785,
      "Ġparser": 1786,
      "skip": 1787,
      "'],": 1788,
      "Query": 1789,
      "Ġfp": 1790,
      "render": 1791,
      "ket": 1792,
      "butes": 1793,
      "gb": 1794,
      "Ġsup": 1795,
      "ĠĠĠĠĠĠĠĠĠĠĠĠĠĠĠĠĠĠĠĠĠĠĠĠĠĠĠĠĠĠĠĠ": 1796,
      "Ġ[{'": 1797,
      "anyOf": 1798,
      "Ġdoes": 1799,
      "Ġopen": 1800,
      "ural": 1801,
      "prefix": 1802,
      "Ġerrors": 1803,
      "Ġ\"--": 1804,
      "={": 1805,
      "detail": 1806,
      "ametrize": 1807,
      "ain": 1808,
      "sca": 1809,
      "cise": 1810,
      "Ġfixture": 1811,
      "ple": 1812,
      "dependent": 1813,
      "istry": 1814,
      "ATE": 1815,
      "rop": 1816,
      "ution": 1817,
      "olve": 1818,
      "Ġoptions": 1819,
      "orld": 1820,
      "Tests": 1821,
      "Ġallow": 1822,
      "Ġcli": 1823,
      "ie": 1824,
      "Ġstart": 1825,
      "keys": 1826,
      "mbed": 1827,
      "Ġurl": 1828,
      "Ġcontinue": 1829,
      "til": 1830,
      "files": 1831,
      "idden": 1832,
      "Ġconcise": 1833,
      "classmethod": 1834,
      "click": 1835,
      "connect": 1836,
      "price": 1837,
      "ask": 1838,
      "ynt": 1839,
      "Ġper": 1840,
      "filename": 1841,
      "Ġorig": 1842,
      "ighli": 1843,
      "Ġparent": 1844,
      "lym": 1845,
      "ca": 1846,
      "terable": 1847,
      "direct": 1848,
      "ĠError": 1849,
      "pass": 1850,
      "Ġcontain": 1851,
      "Ġ[{\"": 1852,
      "From": 1853,
      "sted": 1854,
      "ĠModel": 1855,
      "lymorph": 1856,
      "Schema": 1857,
      "lymorphic": 1858,
      "Ġrequired": 1859,
      "vert": 1860,
      "yntax": 1861,
      "current": 1862,
      "parametrize": 1863,
      "rate": 1864,
      "ceback": 1865,
      "Comp": 1866,
      "Di": 1867,
      "integer": 1868,
      "Ġbased": 1869,
      "LECT": 1870,
      "Ġmapped": 1871,
      "ry": 1872,
      "Py": 1873,
      "Ġpla": 1874,
      "wo": 1875,
      "ature": 1876,
      "PE": 1877,
      "ĊĠĠĠĠ": 1878,
      "server": 1879,
      "fied": 1880,
      "view": 1881,
      "dentity": 1882,
      "__`.": 1883,
      "000": 1884,
      "env": 1885,
      "/{": 1886,
      "ROM": 1887,
      "coder": 1888,
      "oduleType": 1889,
      "Res": 1890,
      "chemy": 1891,
      "Ġad": 1892,
      "IO": 1893,
      "rectory": 1894,
      "Ġsome": 1895,
      "40": 1896,
      "ugh": 1897,
      "ĠDoc": 1898,
      "(*": 1899,
      "template": 1900,
      "stack": 1901,
      "box": 1902,
      "make": 1903,
      "aded": 1904,
      "reak": 1905,
      "rence": 1906,
      "Ġgiven": 1907,
      "errors": 1908,
      "loy": 1909,
      "of": 1910,
      "imal": 1911,
      "Return": 1912,
      "ps": 1913,
      "Ġinclude": 1914,
      "IT": 1915,
      "option": 1916,
      "Ġinvalid": 1917,
      "Column": 1918,
      "Ġinside": 1919,
      "Ġfinal": 1920,
      "vice": 1921,
      "include": 1922,
      "Ġbut": 1923,
      "start": 1924,
      "Ġcomplex": 1925,
      "'])": 1926,
      "Ġver": 1927,
      "ari": 1928,
      "({'": 1929,
      "denti": 1930,
      "fail": 1931,
      "ION": 1932,
      "Ġsql": 1933,
      "__`": 1934,
      "denc": 1935,
      "tial": 1936,
      "os": 1937,
      "Ġ\"-": 1938,
      "ative": 1939,
      "console": 1940,
      "lambda": 1941,
      "scalar": 1942,
      "Ġ7": 1943,
      "]):": 1944,
      "utori": 1945,
      "utorial": 1946,
      "String": 1947,
      "ĠAr": 1948,
      "Warn": 1949,
      "apture": 1950,
      "Response": 1951,
      "ĊĊĠĠĠĠĠĠĠĠĠĠĠĠĠĠĠ": 1952,
      "left": 1953,
      "Ġtarget": 1954,
      "change": 1955,
      "ĠDefault": 1956,
      "bs": 1957,
      "starts": 1958,
      "replace": 1959,
      "ify": 1960,
      "tal": 1961,
      "az": 1962,
      "Ġloc": 1963,
      "Ġfla": 1964,
      "where": 1965,
      "Ġorder": 1966,
      "Config": 1967,
      "@@": 1968,
      "Ġfields": 1969,
      "trol": 1970,
      "su": 1971,
      "block": 1972,
      "strip": 1973,
      "'):": 1974,
      "Ġ255": 1975,
      "aly": 1976,
      "startswith": 1977,
      "exception": 1978,
      "spect": 1979,
      "kip": 1980,
      "terator": 1981,
      "gn": 1982,
      "err": 1983,
      "frame": 1984,
      "Ġdate": 1985,
      "fic": 1986,
      "ĠMan": 1987,
      "Ġyou": 1988,
      "tmp": 1989,
      "Warning": 1990,
      "Ġexec": 1991,
      "sts": 1992,
      "handler": 1993,
      "vant": 1994,
      "comple": 1995,
      "\").": 1996,
      "ach": 1997,
      "ĠModuleType": 1998,
      "addresses": 1999,
      "'{": 2000,
      "Field": 2001,
      "cord": 2002,
      "complete": 2003,
      "none": 2004,
      "ĠV": 2005,
      "Validator": 2006,
      "Ġloop": 2007,
      "ll": 2008,
      "attri": 2009,
      "lush": 2010,
      "Ġinher": 2011,
      "ĠJSON": 2012,
      "Ġexample": 2013,
      "uidance": 2014,
      "Ġover": 2015,
      "ĠNo": 2016,
      "Ġguidance": 2017,
      "Ġappro": 2018,
      "Ġmin": 2019,
      "target": 2020,
      "onor": 2021,
      "Ġrelevant": 2022,
      "Ġbreak": 2023,
      "ĠHonor": 2024,
      "Ġauto": 2025,
      "alyze": 2026,
      "other": 2027,
      "lean": 2028,
      "cimal": 2029,
      "[:": 2030,
      "Ġiteration": 2031,
      "tutorial": 2032,
      "bug": 2033,
      "stmt": 2034,
      "Ġct": 2035,
      "ĠMy": 2036,
      "Session": 2037,
      "asi": 2038,
      "Ġ*,": 2039,
      "registry": 2040,
      "}'": 2041,
      "My": 2042,
      "parameter": 2043,
      "Ġdialect": 2044,
      "ĠAdd": 2045,
      "bin": 2046,
      "Ġ42": 2047,
      "Ġsubprocess": 2048,
      "dump": 2049,
      "Ġoptional": 2050,
      "ING": 2051,
      "go": 2052,
      "mpt": 2053,
      "Ġrelationship": 2054,
      "Ġresource": 2055,
      "âĶģâĶģ": 2056,
      "ĠFoo": 2057,
      "etch": 2058,
      "lated": 2059,
      "ual": 2060,
      "onkey": 2061,
      "off": 2062,
      "ported": 2063,
      "nown": 2064,
      "={\"": 2065,
      "height": 2066,
      "ĠAST": 2067,
      "Ġpydantic": 2068,
      "Ġbounds": 2069,
      "Ġvalid": 2070,
      "attern": 2071,
      "ocket": 2072,
      "Message": 2073,
      "Ġctx": 2074,
      "Ġgetattr": 2075,
      "df": 2076,
      "Ġdepth": 2077,
      "Ġreturned": 2078,
      "Ġwhile": 2079,
      "ome": 2080,
      "Ġmore": 2081,
      "atic": 2082,
      "pop": 2083,
      "orch": 2084,
      "adding": 2085,
      "Ġcomplexity": 2086,
      "the": 2087,
      "99": 2088,
      "email": 2089,
      "'))": 2090,
      "ĠAPIs": 2091,
      "bind": 2092,
      "alchemy": 2093,
      "Ġprocess": 2094,
      "script": 2095,
      "Analyze": 2096,
      "perator": 2097,
      "Ġresults": 2098,
      "Ġstructural": 2099,
      "exist": 2100,
      "Ġheaders": 2101,
      "Ġmaximum": 2102,
      "Ġwarnings": 2103,
      "ice": 2104,
      "Ġsh": 2105,
      "action": 2106,
      "Ġbu": 2107,
      "uration": 2108,
      "Ġinfo": 2109,
      "SELECT": 2110,
      "indent": 2111,
      "ĠCosts": 2112,
      "gger": 2113,
      "ride": 2114,
      "50": 2115,
      "Ġnorm": 2116,
      "Ġextra": 2117,
      "mething": 2118,
      "RL": 2119,
      "report": 2120,
      "cted": 2121,
      "cook": 2122,
      "Ġseriali": 2123,
      "AN": 2124,
      "SQL": 2125,
      "host": 2126,
      "child": 2127,
      "Enum": 2128,
      "Ġattribute": 2129,
      "Ġheader": 2130,
      "Ġwas": 2131,
      ".\")": 2132,
      "long": 2133,
      "Ġnext": 2134,
      "Ġchild": 2135,
      "dataclass": 2136,
      "Ġparams": 2137,
      "uni": 2138,
      ".\"": 2139,
      "cheme": 2140,
      "100": 2141,
      "ithub": 2142,
      "null": 2143,
      "Ġusing": 2144,
      "422": 2145,
      "priate": 2146,
      "Ġ[(": 2147,
      "quo": 2148,
      "Ġappropriate": 2149,
      "AB": 2150,
      "ag": 2151,
      "uter": 2152,
      "rough": 2153,
      "Ġobj": 2154,
      "CH": 2155,
      ".\\": 2156,
      "Ġcommand": 2157,
      "work": 2158,
      "AT": 2159,
      "Result": 2160,
      "tablename": 2161,
      "html": 2162,
      "Ġfiles": 2163,
      "typer": 2164,
      "link": 2165,
      "Ġalias": 2166,
      "ids": 2167,
      "ocation": 2168,
      "mbedding": 2169,
      "chron": 2170,
      "Ġsee": 2171,
      "Ġtrans": 2172,
      "ynchron": 2173,
      "Ġz": 2174,
      "310": 2175,
      "rans": 2176,
      "copy": 2177,
      "afe": 2178,
      "(_": 2179,
      "Ġtmp": 2180,
      "Ġleft": 2181,
      "straint": 2182,
      "cri": 2183,
      "lack": 2184,
      "fla": 2185,
      "pends": 2186,
      "Ġpur": 2187,
      "indow": 2188,
      "Address": 2189,
      "unk": 2190,
      "bbbb": 2191,
      "Info": 2192,
      "38": 2193,
      "zz": 2194,
      "Ġoff": 2195,
      "Not": 2196,
      "second": 2197,
      "Ġup": 2198,
      "optional": 2199,
      "custom": 2200,
      "lor": 2201,
      "true": 2202,
      "Engine": 2203,
      "element": 2204,
      "rgb": 2205,
      "Ġrecur": 2206,
      "ĠFROM": 2207,
      "Ġright": 2208,
      "label": 2209,
      "Ġspeci": 2210,
      "ĠCallable": 2211,
      "missing": 2212,
      "Ġcomment": 2213,
      "datetime": 2214,
      "izer": 2215,
      ")))": 2216,
      "Ġref": 2217,
      "Ġalso": 2218,
      "Gener": 2219,
      "route": 2220,
      "Ġpas": 2221,
      "ternal": 2222,
      "Lo": 2223,
      "iteral": 2224,
      "manager": 2225,
      "ĠConfig": 2226,
      "][": 2227,
      "last": 2228,
      "Ġexclude": 2229,
      "Ġdescription": 2230,
      "sive": 2231,
      "Ġcache": 2232,
      "ingle": 2233,
      "Ġcharacter": 2234,
      "ĠUnion": 2235,
      "scope": 2236,
      "Ġnon": 2237,
      "teral": 2238,
      "Ġtitle": 2239,
      "ĠString": 2240,
      "34": 2241,
      "ĠPydantic": 2242,
      "columns": 2243,
      "Ġab": 2244,
      "tension": 2245,
      "Ġback": 2246,
      "umented": 2247,
      "Ġmark": 2248,
      "exp": 2249,
      "bl": 2250,
      "Ġ`__": 2251,
      "ĠManage": 2252,
      "Ġresources": 2253,
      "arguments": 2254,
      "oken": 2255,
      "Ġthan": 2256,
      "Ġdocumented": 2257,
      "Ġthrough": 2258,
      "Ġcre": 2259,
      "palette": 2260,
      "norm": 2261,
      "pixel": 2262,
      "derr": 2263,
      "environ": 2264,
      "Fixture": 2265,
      "Ġpurpose": 2266,
      "apter": 2267,
      "]`.": 2268,
      "Ġmake": 2269,
      "Ġclick": 2270,
      "sting": 2271,
      "={'": 2272,
      "allow": 2273,
      "Ġupdate": 2274,
      "Ġ9": 2275,
      "acy": 2276,
      "List": 2277,
      "Ser": 2278,
      "local": 2279,
      "ĠDefaults": 2280,
      "crement": 2281,
      "Ġdb": 2282,
      "lobal": 2283,
      "lower": 2284,
      "Ġrender": 2285,
      "fter": 2286,
      "plugin": 2287,
      "store": 2288,
      "Ġquery": 2289,
      "Ġacquired": 2290,
      "setup": 2291,
      "Table": 2292,
      "reen": 2293,
      "ĠField": 2294,
      "Ġlogging": 2295,
      "oreign": 2296,
      "ĠAddress": 2297,
      "echo": 2298,
      "old": 2299,
      "RO": 2300,
      "Integer": 2301,
      "github": 2302,
      "head": 2303,
      "top": 2304,
      "gacy": 2305,
      "ĠMe": 2306,
      "Ġdiff": 2307,
      "eq": 2308,
      "Ġman": 2309,
      "Ġ100": 2310,
      ">>": 2311,
      "eds": 2312,
      "Ġlast": 2313,
      "Ġaddresses": 2314,
      "tim": 2315,
      "union": 2316,
      "\"\\": 2317,
      "This": 2318,
      ".{": 2319,
      "pk": 2320,
      "password": 2321,
      "ET": 2322,
      "asic": 2323,
      "78": 2324,
      "'}}": 2325,
      "Auth": 2326,
      "Ġstatement": 2327,
      "impl": 2328,
      "event": 2329,
      "Ġvalidation": 2330,
      "polymorphic": 2331,
      "resolve": 2332,
      "39": 2333,
      "ating": 2334,
      "diff": 2335,
      "address": 2336,
      "Ġcollection": 2337,
      "AD": 2338,
      "inition": 2339,
      "Ġoption": 2340,
      "tyle": 2341,
      "ID": 2342,
      "Ġlevel": 2343,
      "renderable": 2344,
      "@::::": 2345,
      "ass": 2346,
      "Text": 2347,
      "ckle": 2348,
      "Plugin": 2349,
      "lease": 2350,
      "Ġreg": 2351,
      "Ġbo": 2352,
      "gex": 2353,
      "term": 2354,
      "dis": 2355,
      "ocab": 2356,
      "Ġ128": 2357,
      "Ġwork": 2358,
      "Ġraw": 2359,
      "RGBA": 2360,
      "pdate": 2361,
      "vari": 2362,
      "Ġfn": 2363,
      "comment": 2364,
      "abc": 2365,
      "COM": 2366,
      "]}": 2367,
      "vai": 2368,
      "Ġskip": 2369,
      "âĶĤ": 2370,
      "flush": 2371,
      "Ġmulti": 2372,
      "corator": 2373,
      "lause": 2374,
      "Body": 2375,
      "tag": 2376,
      "ĠException": 2377,
      "primary": 2378,
      "Ġtri": 2379,
      "Ġauth": 2380,
      "offset": 2381,
      "\".": 2382,
      "exclude": 2383,
      "peratively": 2384,
      "river": 2385,
      "Ġfilename": 2386,
      "ĠReturns": 2387,
      "lang": 2388,
      "Ġdocs": 2389,
      "hen": 2390,
      "imperatively": 2391,
      "NT": 2392,
      "licit": 2393,
      "}\",": 2394,
      "Ġexception": 2395,
      "PT": 2396,
      "cluding": 2397,
      "Ġhandler": 2398,
      "has": 2399,
      "Ġpassed": 2400,
      "Ġcor": 2401,
      "encoding": 2402,
      "vailable": 2403,
      "fetch": 2404,
      "Ġroot": 2405,
      "asure": 2406,
      "factory": 2407,
      "Ġ<=": 2408,
      "ami": 2409,
      "LI": 2410,
      "gh": 2411,
      "see": 2412,
      "Connection": 2413,
      "Ġemp": 2414,
      "aaaaaaaa": 2415,
      "Ġoriginal": 2416,
      "gin": 2417,
      "Ġshow": 2418,
      "after": 2419,
      "amila": 2420,
      "Ġhttps": 2421,
      "State": 2422,
      "ĠBase": 2423,
      "ixed": 2424,
      "identity": 2425,
      "Ġnesting": 2426,
      "Ġ{}}},": 2427,
      "eeeeeeee": 2428,
      "istory": 2429,
      "Location": 2430,
      "ime": 2431,
      "Ġstack": 2432,
      "settings": 2433,
      "loaded": 2434,
      "oreignKey": 2435,
      "Ġtorch": 2436,
      "For": 2437,
      "0000": 2438,
      "Ġinherits": 2439,
      "Ġafter": 2440,
      "Ġ```": 2441,
      "tform": 2442,
      "scape": 2443,
      "Ġexp": 2444,
      "ran": 2445,
      "ĊĠĠĠĠĠĠĠĠĠ": 2446,
      "Ġindent": 2447,
      "show": 2448,
      "Tuple": 2449,
      "ttr": 2450,
      "64": 2451,
      "Ġ\"\\": 2452,
      "ven": 2453,
      "ateg": 2454,
      "ĠText": 2455,
      "''": 2456,
      "decode": 2457,
      "Ġimportlib": 2458,
      "cccc": 2459,
      "ĠSQL": 2460,
      "sup": 2461,
      "sure": 2462,
      "Ġprefix": 2463,
      "sa": 2464,
      "ĠEx": 2465,
      "Ġtesting": 2466,
      "__.": 2467,
      "Ġtypes": 2468,
      "Create": 2469,
      "Read": 2470,
      "loads": 2471,
      "curity": 2472,
      "non": 2473,
      "Ġframe": 2474,
      "Ġgo": 2475,
      "Ġhttpx": 2476,
      "termin": 2477,
      "statement": 2478,
      "inter": 2479,
      "Ġdocstring": 2480,
      "yntaxError": 2481,
      "wi": 2482,
      "Ġfound": 2483,
      "ĠSchemaValidator": 2484,
      "strict": 2485,
      "Ġpalette": 2486,
      "collection": 2487,
      "xtures": 2488,
      "gen": 2489,
      "stead": 2490,
      "added": 2491,
      "ved": 2492,
      "dency": 2493,
      "ell": 2494,
      "range": 2495,
      "down": 2496,
      "ite": 2497,
      "Ġlambda": 2498,
      "dbapi": 2499,
      "Ġsqlalchemy": 2500,
      "Ġmonkey": 2501,
      "keyword": 2502,
      "minator": 2503,
      "Ġdatetime": 2504,
      "indows": 2505,
      "thing": 2506,
      "ĠProcess": 2507,
      "Ġsupport": 2508,
      "[[": 2509,
      "ression": 2510,
      "Ġsame": 2511,
      "('\\": 2512,
      "char": 2513,
      "completion": 2514,
      "ceptions": 2515,
      "Ġinspect": 2516,
      "30": 2517,
      "##": 2518,
      "changed": 2519,
      "SError": 2520,
      "Run": 2521,
      "Ġsa": 2522,
      "Ġbefore": 2523,
      "ned": 2524,
      "Ġwrap": 2525,
      "Ġmonkeypatch": 2526,
      "ĠHTTP": 2527,
      "Ġsp": 2528,
      "gram": 2529,
      ")],": 2530,
      "expression": 2531,
      "ĠLiteral": 2532,
      "Ġ20": 2533,
      "defaults": 2534,
      "UL": 2535,
      "Async": 2536,
      "Ġcapture": 2537,
      "Ġsingle": 2538,
      "tests": 2539,
      "typed": 2540,
      "AS": 2541,
      "Ġelement": 2542,
      "generate": 2543,
      "ctionary": 2544,
      "Ġdeprecated": 2545,
      "Ġarguments": 2546,
      "bit": 2547,
      "fli": 2548,
      "leep": 2549,
      "Ġ--": 2550,
      "delta": 2551,
      "forma": 2552,
      "ĠSequence": 2553,
      "stderr": 2554,
      "Ġattributes": 2555,
      "Bar": 2556,
      "ward": 2557,
      "Ġblock": 2558,
      "Ġremove": 2559,
      "CO": 2560,
      "pos": 2561,
      "ĠArgs": 2562,
      "](": 2563,
      "ighligh": 2564,
      "Ġhere": 2565,
      "CK": 2566,
      "Ġinstead": 2567,
      "hook": 2568,
      "tention": 2569,
      "Ġerr": 2570,
      "orig": 2571,
      "Ġ16": 2572,
      "Ġobjects": 2573,
      "Ġrepr": 2574,
      ".')": 2575,
      "verage": 2576,
      "seek": 2577,
      ")])": 2578,
      "Ġproper": 2579,
      "task": 2580,
      "tting": 2581,
      "Validate": 2582,
      "Ġvari": 2583,
      "bsocket": 2584,
      "next": 2585,
      "Ch": 2586,
      "__,": 2587,
      "sha": 2588,
      "mented": 2589,
      "examples": 2590,
      "ations": 2591,
      "Ġannotation": 2592,
      "sequence": 2593,
      "aises": 2594,
      "'})": 2595,
      "ms": 2596,
      "ister": 2597,
      "Ġparse": 2598,
      "callback": 2599,
      "Get": 2600,
      "lineno": 2601,
      "executable": 2602,
      "âĶĢâĶĢâĶĢâĶĢâĶĢâĶĢâĶĢâĶĢâĶĢâĶĢâĶĢâĶĢâĶĢâĶĢâĶĢâĶĢ": 2603,
      "1234": 2604,
      "png": 2605,
      "zy": 2606,
      "ake": 2607,
      "erred": 2608,
      "project": 2609,
      "cii": 2610,
      "Ġiteratively": 2611,
      "Ġevent": 2612,
      "[-": 2613,
      "Ġnames": 2614,
      "Callable": 2615,
      "ĠConsole": 2616,
      "nested": 2617,
      "Ġengine": 2618,
      "flow": 2619,
      "util": 2620,
      "Ġcustom": 2621,
      "defined": 2622,
      "router": 2623,
      "limit": 2624,
      "Seriali": 2625,
      "can": 2626,
      "....": 2627,
      "EN": 2628,
      "ĠFor": 2629,
      "Detail": 2630,
      "empty": 2631,
      "pg": 2632,
      "issue": 2633,
      "Ġrenderable": 2634,
      ")}": 2635,
      "cookie": 2636,
      "page": 2637,
      "this": 2638,
      "wise": 2639,
      "{%": 2640,
      "Ġop": 2641,
      "play": 2642,
      "Trans": 2643,
      "ĠPar": 2644,
      "tocol": 2645,
      "security": 2646,
      "alized": 2647,
      "FixtureRequest": 2648,
      "bose": 2649,
      "JSON": 2650,
      "safe": 2651,
      "ĊĠ": 2652,
      "inner": 2653,
      "ason": 2654,
      "FF": 2655,
      "().__": 2656,
      "ĠPytester": 2657,
      "device": 2658,
      "Ġoffset": 2659,
      "ullable": 2660,
      "Ġpack": 2661,
      "ĠĠĠĠĠ": 2662,
      "remove": 2663,
      "Ġfe": 2664,
      "HER": 2665,
      "zen": 2666,
      "lay": 2667,
      "mock": 2668,
      "Ġtotal": 2669,
      "({": 2670,
      "Ġcount": 2671,
      "OT": 2672,
      "mask": 2673,
      "ĠList": 2674,
      "Ġusername": 2675,
      "Ġgenerated": 2676,
      "ased": 2677,
      "Ġpage": 2678,
      "tags": 2679,
      "rozen": 2680,
      ")).": 2681,
      "ĠAsync": 2682,
      "dim": 2683,
      "ost": 2684,
      "encode": 2685,
      "Ad": 2686,
      "idx": 2687,
      "convert": 2688,
      "ynchronous": 2689,
      "gress": 2690,
      "ffix": 2691,
      "Ġinteger": 2692,
      "=(": 2693,
      "before": 2694,
      "equal": 2695,
      "Set": 2696,
      "Ġsecond": 2697,
      "ches": 2698,
      "Ġposi": 2699,
      "tokens": 2700,
      "Ġhasattr": 2701,
      "HERE": 2702,
      "pp": 2703,
      "Ġ\"\"": 2704,
      "cursor": 2705,
      "stract": 2706,
      "Ġlike": 2707,
      "{{": 2708,
      "Ġvalidate": 2709,
      "atures": 2710,
      "Ġsrc": 2711,
      "vide": 2712,
      "wagger": 2713,
      "ighlighter": 2714,
      "warnings": 2715,
      "ilter": 2716,
      "Ġfol": 2717,
      "Ġstream": 2718,
      "Json": 2719,
      "ImagePlugin": 2720,
      "Ġsetup": 2721,
      "quires": 2722,
      "Ġsomething": 2723,
      "build": 2724,
      "248": 2725,
      "vents": 2726,
      "Ġeach": 2727,
      "rule": 2728,
      "sleep": 2729,
      "needs": 2730,
      "duce": 2731,
      "chmark": 2732,
      "abled": 2733,
      "ats": 2734,
      "Ġ'#/": 2735,
      "loyee": 2736,
      "redirect": 2737,
      "Ġ'__": 2738,
      "ĠFastAPI": 2739,
      "flict": 2740,
      "ĠIterable": 2741,
      "ĠWe": 2742,
      "xxxxxxxx": 2743,
      "ood": 2744,
      "ttribute": 2745,
      "With": 2746,
      "tep": 2747,
      "org": 2748,
      "Ġuni": 2749,
      "apping": 2750,
      "24": 2751,
      "serializer": 2752,
      "pha": 2753,
      "Ġact": 2754,
      "vironment": 2755,
      "fast": 2756,
      "========": 2757,
      "ĠURL": 2758,
      "Ġrule": 2759,
      "Sub": 2760,
      "Ġass": 2761,
      "hell": 2762,
      "ranch": 2763,
      "_,": 2764,
      "ĠValidate": 2765,
      "tile": 2766,
      "Ġ{'$": 2767,
      "imple": 2768,
      "record": 2769,
      "ked": 2770,
      "Ġexcluding": 2771,
      "Ġlength": 2772,
      "prompt": 2773,
      "ĠTypeError": 2774,
      "cen": 2775,
      "vate": 2776,
      "deprecated": 2777,
      "our": 2778,
      "Ġaction": 2779,
      "returning": 2780,
      "Ġnodes": 2781,
      "tend": 2782,
      "TY": 2783,
      "ople": 2784,
      "inary": 2785,
      "Ġanon": 2786,
      "ulary": 2787,
      "ocabulary": 2788,
      "15": 2789,
      "peg": 2790,
      "Ġ%}": 2791,
      "').": 2792,
      "ining": 2793,
      "Ġcast": 2794,
      "people": 2795,
      "traceback": 2796,
      "5678": 2797,
      "RA": 2798,
      "hidden": 2799,
      "iti": 2800,
      "Ġ\"_": 2801,
      "Ġfin": 2802,
      "Ġbind": 2803,
      "Element": 2804,
      "ground": 2805,
      "ytes": 2806,
      "depth": 2807,
      "oooo": 2808,
      "Com": 2809,
      "mapping": 2810,
      "Ġpackage": 2811,
      "Ġreport": 2812,
      "ceive": 2813,
      "Ġscope": 2814,
      "(\"--": 2815,
      "Ġkeys": 2816,
      "MA": 2817,
      "Ġ>=": 2818,
      "Ġsum": 2819,
      "Ġstatus": 2820,
      "FA": 2821,
      "Ġthere": 2822,
      "very": 2823,
      "ĠNot": 2824,
      "Ġavailable": 2825,
      "]]:": 2826,
      "ince": 2827,
      "ĠQuery": 2828,
      "ero": 2829,
      "opper": 2830,
      "rand": 2831,
      "@::::@::::": 2832,
      "36": 2833,
      "ABLE": 2834,
      "embedding": 2835,
      "ascii": 2836,
      "Ġlogger": 2837,
      "Ġtop": 2838,
      "Ġhopper": 2839,
      "Console": 2840,
      "les": 2841,
      "Ġinst": 2842,
      "Ġexpect": 2843,
      ":::": 2844,
      "ices": 2845,
      "Ġkwargs": 2846,
      "entic": 2847,
      "Ġwhere": 2848,
      "inf": 2849,
      "Ġcontains": 2850,
      "Group": 2851,
      "lias": 2852,
      "cluded": 2853,
      "less": 2854,
      "mplemented": 2855,
      "ww": 2856,
      "many": 2857,
      "speci": 2858,
      "txt": 2859,
      "Ġstrict": 2860,
      "Ġ>>>": 2861,
      "Core": 2862,
      "ES": 2863,
      "Str": 2864,
      "UR": 2865,
      "Ġattr": 2866,
      "ango": 2867,
      "ĠDepends": 2868,
      "act": 2869,
      "ular": 2870,
      "opt": 2871,
      "eader": 2872,
      "ison": 2873,
      "ready": 2874,
      "Pa": 2875,
      "Ġgenerate": 2876,
      "two": 2877,
      "...,": 2878,
      "Ġrv": 2879,
      "BAPI": 2880,
      "sy": 2881,
      "static": 2882,
      "vious": 2883,
      "NO": 2884,
      "Ġexpression": 2885,
      "Ġmapper": 2886,
      "ysql": 2887,
      "trip": 2888,
      "package": 2889,
      "conn": 2890,
      "person": 2891,
      "Ġmock": 2892,
      "execution": 2893,
      "ighlight": 2894,
      "encoder": 2895,
      "ĠName": 2896,
      "dentials": 2897,
      "Ġinsert": 2898,
      "(\"\\": 2899,
      "expr": 2900,
      "arch": 2901,
      "loader": 2902,
      "qa": 2903,
      "]=": 2904,
      "255": 2905,
      "FI": 2906,
      "DI": 2907,
      "Mo": 2908,
      "override": 2909,
      "Ġfailed": 2910,
      "ump": 2911,
      "Ġdel": 2912,
      "exists": 2913,
      "Ġreplace": 2914,
      "sit": 2915,
      "Ġdelete": 2916,
      "ĠOSError": 2917,
      "Ġview": 2918,
      "titem": 2919,
      "Ġcharacters": 2920,
      "On": 2921,
      "PY": 2922,
      "}',": 2923,
      "Ġdictionary": 2924,
      "fixtures": 2925,
      "dge": 2926,
      "sent": 2927,
      "Ġglobal": 2928,
      "Ġnoqa": 2929,
      "]`,": 2930,
      "wh": 2931,
      "gest": 2932,
      "Ġhandle": 2933,
      "Ġpi": 2934,
      "')),": 2935,
      "35": 2936,
      "Ġfont": 2937,
      "sertion": 2938,
      "fier": 2939,
      "ĠComp": 2940,
      "rows": 2941,
      "Ġtemp": 2942,
      "sten": 2943,
      "UT": 2944,
      "bi": 2945,
      "pool": 2946,
      "states": 2947,
      "duct": 2948,
      "ould": 2949,
      "ĠFile": 2950,
      "Ġgroup": 2951,
      "drop": 2952,
      "gt": 2953,
      "git": 2954,
      "processor": 2955,
      "ĠForeignKey": 2956,
      "Engineer": 2957,
      "ĠX": 2958,
      "Ġasynchronous": 2959,
      "unpack": 2960,
      "Time": 2961,
      "attribute": 2962,
      "MP": 2963,
      "ĠData": 2964,
      "Ġclo": 2965,
      "terminal": 2966,
      "known": 2967,
      "Ġneed": 2968,
      "ĠSession": 2969,
      "literal": 2970,
      "pper": 2971,
      "Ġplugin": 2972,
      "Token": 2973,
      "lected": 2974,
      "Ġfast": 2975,
      "quote": 2976,
      ".\",": 2977,
      "ĠSt": 2978,
      "cause": 2979,
      "Ġ'-": 2980,
      "clause": 2981,
      "}:": 2982,
      "decorator": 2983,
      "Ġnp": 2984,
      "cached": 2985,
      "({\"": 2986,
      "Ġtemplate": 2987,
      "scheme": 2988,
      "single": 2989,
      "UN": 2990,
      "cu": 2991,
      "history": 2992,
      "lite": 2993,
      "Parser": 2994,
      "asurement": 2995,
      "qlite": 2996,
      "logging": 2997,
      "Ġfollow": 2998,
      "increment": 2999,
      "hed": 3000,
      "ui": 3001,
      "attributes": 3002,
      "Ġtmpl": 3003,
      "typing": 3004,
      "ĠĠĠĠĠĠĠĠĠĠĠĠĠĠĠĠĠĠĠ": 3005,
      "begin": 3006,
      "orization": 3007,
      "``.": 3008,
      "yy": 3009,
      "Ġempty": 3010,
      "rac": 3011,
      "ignore": 3012,
      "generator": 3013,
      "ookie": 3014,
      "ĠIN": 3015,
      "Ġpython": 3016,
      "Serializer": 3017,
      "coverage": 3018,
      "accept": 3019,
      "find": 3020,
      "Ġwould": 3021,
      "ĠStyle": 3022,
      "models": 3023,
      "erive": 3024,
      "----------------": 3025,
      "Font": 3026,
      "Ġbuff": 3027,
      "Ġsy": 3028,
      "18": 3029,
      "release": 3030,
      "Ġiter": 3031,
      "oolean": 3032,
      "ĠDerive": 3033,
      "Ġlong": 3034,
      "/')": 3035,
      "cy": 3036,
      "tiango": 3037,
      "Ren": 3038,
      "Ġcopy": 3039,
      "Invalid": 3040,
      "tiangolo": 3041,
      "pytester": 3042,
      "foobar": 3043,
      "\"}]": 3044,
      "Clause": 3045,
      "ia": 3046,
      "ĠAs": 3047,
      "proxy": 3048,
      "Ġdetail": 3049,
      "ĠSyntaxError": 3050,
      "Ġsave": 3051,
      "Ġabout": 3052,
      "definition": 3053,
      "arison": 3054,
      "clar": 3055,
      "eval": 3056,
      "Ġrich": 3057,
      "Ġ).": 3058,
      "platform": 3059,
      "Ġfail": 3060,
      "unique": 3061,
      "imp": 3062,
      "}},": 3063,
      "DO": 3064,
      "verse": 3065,
      "Ġ\".": 3066,
      "rectly": 3067,
      "}/": 3068,
      "Ġwant": 3069,
      "js": 3070,
      "ifest": 3071,
      "seconds": 3072,
      "simple": 3073,
      "Ġcolumns": 3074,
      "ference": 3075,
      "COMP": 3076,
      "fastapi": 3077,
      "128": 3078,
      "Ġ50": 3079,
      "ru": 3080,
      "Param": 3081,
      "Ġag": 3082,
      "14": 3083,
      "ĠKey": 3084,
      "Ġdatabase": 3085,
      "Ġwrite": 3086,
      "come": 3087,
      "handle": 3088,
      "Or": 3089,
      "Color": 3090,
      "driver": 3091,
      "escape": 3092,
      "Ġinter": 3093,
      "timizer": 3094,
      "Per": 3095,
      "hn": 3096,
      "Var": 3097,
      "ning": 3098,
      "sco": 3099,
      "Ġ'\\": 3100,
      "Ġkeyword": 3101,
      "Ġmultiple": 3102,
      "}\\": 3103,
      "unter": 3104,
      "Ġ((": 3105,
      "Ġsettings": 3106,
      "Ġbyte": 3107,
      "outer": 3108,
      "Ġword": 3109,
      "Optional": 3110,
      "directory": 3111,
      "Ġdirectory": 3112,
      "umerate": 3113,
      "Ġwarning": 3114,
      "padding": 3115,
      "tiff": 3116,
      "pickle": 3117,
      "Ġrows": 3118,
      "Ġpattern": 3119,
      "Ġiss": 3120,
      "total": 3121,
      "ĠRequest": 3122,
      "ually": 3123,
      "Ġ'--": 3124,
      "hopper": 3125,
      "debug": 3126,
      "cret": 3127,
      "multiple": 3128,
      "num": 3129,
      "ainst": 3130,
      "'\\": 3131,
      "Ġdon": 3132,
      "warning": 3133,
      "Ġjust": 3134,
      "Ġtwo": 3135,
      "rit": 3136,
      "Case": 3137,
      "ĠBaseModel": 3138,
      "Ġcs": 3139,
      "Ġcallable": 3140,
      "exceptions": 3141,
      "part": 3142,
      "runpytest": 3143,
      "([\"": 3144,
      "erent": 3145,
      "enum": 3146,
      "pyfile": 3147,
      "ates": 3148,
      "ĠGener": 3149,
      "Ġenumerate": 3150,
      "SS": 3151,
      "Ġinner": 3152,
      "timeError": 3153,
      "ardown": 3154,
      "Ġserialize": 3155,
      "Err": 3156,
      "sage": 3157,
      "Ġits": 3158,
      "Ġalready": 3159,
      "ytesIO": 3160,
      "iff": 3161,
      "contain": 3162,
      "Ġcontrol": 3163,
      "ĠUpdate": 3164,
      "ĠWorld": 3165,
      "Exec": 3166,
      "ĠĠĠĠĠĠ": 3167,
      "()),": 3168,
      "Ġpost": 3169,
      "sets": 3170,
      "dition": 3171,
      "Ġtag": 3172,
      "Ro": 3173,
      "iler": 3174,
      "ĠRun": 3175,
      "ĠItems": 3176,
      "taData": 3177,
      "ways": 3178,
      "checkpoint": 3179,
      "suffix": 3180,
      "wd": 3181,
      "riter": 3182,
      "site": 3183,
      "SI": 3184,
      "001": 3185,
      "scalars": 3186,
      "black": 3187,
      "teardown": 3188,
      "expect": 3189,
      "Ġmeta": 3190,
      "ĠON": 3191,
      "clarative": 3192,
      "precation": 3193,
      "Ġdoesn": 3194,
      "AME": 3195,
      "rge": 3196,
      "ched": 3197,
      "Ġappend": 3198,
      "ĠSegment": 3199,
      "Ġheight": 3200,
      "oci": 3201,
      "pan": 3202,
      "full": 3203,
      "hero": 3204,
      "dataset": 3205,
      "makepyfile": 3206,
      "Ġkw": 3207,
      "getpixel": 3208,
      "zero": 3209,
      "Ġdbapi": 3210,
      "position": 3211,
      "Man": 3212,
      "namespace": 3213,
      "section": 3214,
      "Al": 3215,
      "Th": 3216,
      "rary": 3217,
      "ruff": 3218,
      "spe": 3219,
      "dep": 3220,
      "pare": 3221,
      "prop": 3222,
      "font": 3223,
      "CE": 3224,
      "Ġsupported": 3225,
      "(\\": 3226,
      "erence": 3227,
      "modules": 3228,
      "âĶģâĶģâĶģâĶģ": 3229,
      "Ġbuffer": 3230,
      ")\\": 3231,
      "]],": 3232,
      "COL": 3233,
      "Ġproperties": 3234,
      "also": 3235,
      "Ġform": 3236,
      "TER": 3237,
      "Ġcommon": 3238,
      "Ġra": 3239,
      "Ġstrings": 3240,
      "setattr": 3241,
      "tered": 3242,
      "Ġversionadded": 3243,
      "Ġcursor": 3244,
      "Dialect": 3245,
      "Ġstatic": 3246,
      "ĠColor": 3247,
      "(['": 3248,
      "Handler": 3249,
      "force": 3250,
      "ĊĠĠĠĠĠĠĠĠĠĠĠĠĠĠĠĠĠĠĠĠĠĠĠĠĠĠĠĠĠĠĠĠĠĠĠĠĠĠĠĠĠĠĠĠĠĠĠ": 3251,
      "TEST": 3252,
      "Ġfull": 3253,
      "Ġpixel": 3254,
      "unit": 3255,
      "Ġchar": 3256,
      "ĠOK": 3257,
      "Ġcmd": 3258,
      "binary": 3259,
      "=_": 3260,
      "baz": 3261,
      "Ġserver": 3262,
      "mysql": 3263,
      "\"})": 3264,
      "Ġ//": 3265,
      "Implemented": 3266,
      "Ġfixed": 3267,
      "('--": 3268,
      "supported": 3269,
      "named": 3270,
      "ĠOpen": 3271,
      "ĠWHERE": 3272,
      "ĠOR": 3273,
      "warns": 3274,
      "GE": 3275,
      "resh": 3276,
      "timeout": 3277,
      "compare": 3278,
      ")\"": 3279,
      "13": 3280,
      "Ġvalidator": 3281,
      "ĠErr": 3282,
      "rag": 3283,
      "Ġtests": 3284,
      "Ġ123": 3285,
      "Ġval": 3286,
      "(?": 3287,
      "Ġexpo": 3288,
      "dified": 3289,
      "25": 3290,
      "Custom": 3291,
      "nother": 3292,
      "dumps": 3293,
      "Ġvariable": 3294,
      "ns": 3295,
      "LETE": 3296,
      "Ġidx": 3297,
      "UP": 3298,
      "Ġ'.": 3299,
      "Ġspec": 3300,
      "gic": 3301,
      "discri": 3302,
      "Ġdepen": 3303,
      "cols": 3304,
      "LO": 3305,
      "ured": 3306,
      "Args": 3307,
      "Ġresolve": 3308,
      "fnmatch": 3309,
      "'.": 3310,
      "Ġlineno": 3311,
      "register": 3312,
      "Options": 3313,
      "VE": 3314,
      "``,": 3315,
      "san": 3316,
      "lt": 3317,
      "tax": 3318,
      "locals": 3319,
      "Ġ\",": 3320,
      "served": 3321,
      "short": 3322,
      "Ġdest": 3323,
      "collect": 3324,
      "ratio": 3325,
      "character": 3326,
      "vars": 3327,
      "60": 3328,
      "Ġfind": 3329,
      "Pydantic": 3330,
      "Ref": 3331,
      "upload": 3332,
      "mber": 3333,
      "dencies": 3334,
      "gres": 3335,
      "meta": 3336,
      "active": 3337,
      "location": 3338,
      "Ġnormalized": 3339,
      "lue": 3340,
      "mk": 3341,
      "mar": 3342,
      "pace": 3343,
      "Ġbecause": 3344,
      "cmd": 3345,
      "hash": 3346,
      "nan": 3347,
      "uti": 3348,
      "HE": 3349,
      "iso": 3350,
      "Ġnum": 3351,
      "80": 3352,
      "cte": 3353,
      "requires": 3354,
      "Ġdecorator": 3355,
      "Ġtraceback": 3356,
      "ĠâĶĤ": 3357,
      "ffer": 3358,
      "/\",": 3359,
      "Ġeval": 3360,
      "Sequence": 3361,
      "PO": 3362,
      "ors": 3363,
      "Le": 3364,
      "ati": 3365,
      "Code": 3366,
      "colors": 3367,
      "Ġcla": 3368,
      "Ġlazy": 3369,
      "Ġ422": 3370,
      "lder": 3371,
      "partial": 3372,
      "ixin": 3373,
      "ĠNotImplemented": 3374,
      "Ġ&": 3375,
      "ĠY": 3376,
      "dic": 3377,
      "Ġoperator": 3378,
      "Col": 3379,
      "strings": 3380,
      "positional": 3381,
      "RI": 3382,
      "Ġold": 3383,
      "ĠId": 3384,
      "Ġ#:": 3385,
      "Ġpatch": 3386,
      "ansi": 3387,
      "Ġforce": 3388,
      "Ġgra": 3389,
      "annotations": 3390,
      "visit": 3391,
      "Object": 3392,
      "bad": 3393,
      "nel": 3394,
      "Ġ:::::": 3395,
      "Ġcallback": 3396,
      "secret": 3397,
      "men": 3398,
      "17": 3399,
      "lity": 3400,
      "ERS": 3401,
      "raph": 3402,
      "Ġexecution": 3403,
      "discriminator": 3404,
      "19": 3405,
      "attrs": 3406,
      "Ġremain": 3407,
      "Ġdebug": 3408,
      "Ġlink": 3409,
      "legacy": 3410,
      "()]": 3411,
      "ĠSee": 3412,
      "failed": 3413,
      "Ġremoved": 3414,
      "_:": 3415,
      "decimal": 3416,
      "Ġcho": 3417,
      "ntry": 3418,
      "timedelta": 3419,
      "And": 3420,
      "pattern": 3421,
      "regex": 3422,
      "lots": 3423,
      "Ġreturns": 3424,
      "reater": 3425,
      "ized": 3426,
      "dependency": 3427,
      "ALU": 3428,
      "ii": 3429,
      "constraint": 3430,
      "extension": 3431,
      "extend": 3432,
      "SET": 3433,
      "wer": 3434,
      "uring": 3435,
      "Parameter": 3436,
      "Ġwebsocket": 3437,
      "ouble": 3438,
      "\"}],": 3439,
      "Ġmanager": 3440,
      "Pre": 3441,
      "Pool": 3442,
      "thread": 3443,
      "parser": 3444,
      "Ġiterator": 3445,
      "like": 3446,
      "iling": 3447,
      "gments": 3448,
      "issues": 3449,
      "disp": 3450,
      "Ġpos": 3451,
      "Draw": 3452,
      "ftest": 3453,
      "Ġthen": 3454,
      "Ġvar": 3455,
      "Ġexposes": 3456,
      "dered": 3457,
      "Ġhidden": 3458,
      "bbbbbbbb": 3459,
      "Ġactual": 3460,
      "Vi": 3461,
      "img": 3462,
      "generic": 3463,
      "matic": 3464,
      "Ġvery": 3465,
      "ĠConfigDict": 3466,
      "ragma": 3467,
      "ĠIs": 3468,
      "Ġlabel": 3469,
      "Ġsuch": 3470,
      "IONS": 3471,
      "DATE": 3472,
      "__)": 3473,
      "Ġhook": 3474,
      "Ġsequence": 3475,
      "feature": 3476,
      "ttributeError": 3477,
      "Iterable": 3478,
      "bold": 3479,
      "ji": 3480,
      "Ġlib": 3481,
      "Camila": 3482,
      "swagger": 3483,
      "Ġproject": 3484,
      "]),": 3485,
      "ĠSchemaSerializer": 3486,
      "CHE": 3487,
      "Tra": 3488,
      "Ġconvert": 3489,
      "dataclasses": 3490,
      "'}},": 3491,
      "(**": 3492,
      "ler": 3493,
      "Ġ{},": 3494,
      "configure": 3495,
      "requestBody": 3496,
      "IL": 3497,
      "ds": 3498,
      "uide": 3499,
      "Ġutil": 3500,
      "NAME": 3501,
      "seq": 3502,
      "kend": 3503,
      "Ġ}}": 3504,
      "ackend": 3505,
      "arer": 3506,
      "Ġtake": 3507,
      "Ġlocal": 3508,
      "fication": 3509,
      "book": 3510,
      "ret": 3511,
      "Ġ'\"": 3512,
      "Ġplain": 3513,
      "/\":": 3514,
      "fy": 3515,
      "Ġ\"\",": 3516,
      "Ġtrue": 3517,
      "mapped": 3518,
      "Ġ\"__": 3519,
      "Ġpassword": 3520,
      "Ġlimit": 3521,
      "Adapter": 3522,
      "gresql": 3523,
      "SER": 3524,
      "inst": 3525,
      "uture": 3526,
      "dient": 3527,
      "uplic": 3528,
      "moji": 3529,
      "ĠID": 3530,
      "Ġfastapi": 3531,
      "Ġnow": 3532,
      "As": 3533,
      "Ġdefine": 3534,
      "serialization": 3535,
      "Default": 3536,
      "22": 3537,
      "}.": 3538,
      "ĠEn": 3539,
      "upper": 3540,
      "Ġimg": 3541,
      "Ġtimeout": 3542,
      "Be": 3543,
      "used": 3544,
      "ĠRaises": 3545,
      "tom": 3546,
      "Ġunder": 3547,
      "Example": 3548,
      "ignment": 3549,
      "ULT": 3550,
      "bp": 3551,
      "getattr": 3552,
      "Ġstill": 3553,
      "Ġbox": 3554,
      "Ten": 3555,
      "children": 3556,
      "Doc": 3557,
      "loop": 3558,
      "oot": 3559,
      "FILE": 3560,
      "Ġnullable": 3561,
      "ĠWhen": 3562,
      "formatted": 3563,
      "amic": 3564,
      "splitlines": 3565,
      "ynamic": 3566,
      "@@@@": 3567,
      "formation": 3568,
      "rl": 3569,
      "Ġwhat": 3570,
      "login": 3571,
      "Stream": 3572,
      "relationship": 3573,
      "256": 3574,
      "ĠDBAPI": 3575,
      "system": 3576,
      "listen": 3577,
      "loss": 3578,
      "Ġtrio": 3579,
      "calar": 3580,
      "yield": 3581,
      "dispatch": 3582,
      "Ġpadding": 3583,
      "sen": 3584,
      "under": 3585,
      "ither": 3586,
      "dist": 3587,
      "buffer": 3588,
      "rong": 3589,
      "Ġfinally": 3590,
      "Jo": 3591,
      "rb": 3592,
      "ĠClass": 3593,
      "ffect": 3594,
      "Ġ[\"--": 3595,
      "Ġseealso": 3596,
      "12345678": 3597,
      ")\",": 3598,
      "Alias": 3599,
      "')])": 3600,
      "ĠCreate": 3601,
      "ORM": 3602,
      "Compar": 3603,
      "Ġbeen": 3604,
      "ĠRead": 3605,
      "Row": 3606,
      "Ver": 3607,
      "Index": 3608,
      "Ġlegacy": 3609,
      "ORD": 3610,
      "iledSQL": 3611,
      "Ġwho": 3612,
      "runner": 3613,
      "existing": 3614,
      "33": 3615,
      "Mapped": 3616,
      "Wrap": 3617,
      "ĠImageFile": 3618,
      "joined": 3619,
      "Typed": 3620,
      "dentifier": 3621,
      "'\"": 3622,
      "Ġthey": 3623,
      "Ġtoo": 3624,
      "ĠCh": 3625,
      "subclass": 3626,
      "subquery": 3627,
      "Ġasyncio": 3628,
      "ĠNotImplementedError": 3629,
      "getitem": 3630,
      "Ġsend": 3631,
      ":]": 3632,
      "Ġround": 3633,
      "Node": 3634,
      "()))": 3635,
      "Ġfake": 3636,
      "Ġbeing": 3637,
      "ilar": 3638,
      "overload": 3639,
      "Ġrawmode": 3640,
      "Event": 3641,
      "cing": 3642,
      "Ġreason": 3643,
      "Ġ'/": 3644,
      "\")),": 3645,
      "codes": 3646,
      "Cre": 3647,
      "andard": 3648,
      "Ġvisit": 3649,
      "bid": 3650,
      "callable": 3651,
      "ssi": 3652,
      "anti": 3653,
      "iltin": 3654,
      "Ġ:=": 3655,
      "elements": 3656,
      "`_": 3657,
      "ritten": 3658,
      "Manager": 3659,
      "Tensor": 3660,
      "Ġfilter": 3661,
      "ĠCli": 3662,
      "Ġ30": 3663,
      "origin": 3664,
      "false": 3665,
      "sta": 3666,
      "ĠIterator": 3667,
      "Some": 3668,
      "unts": 3669,
      "send": 3670,
      "Ġ11": 3671,
      "lobals": 3672,
      "Ġappli": 3673,
      "cessed": 3674,
      "[/": 3675,
      "'}}}}": 3676,
      "Def": 3677,
      "tty": 3678,
      "contents": 3679,
      "ĠDict": 3680,
      "fin": 3681,
      "Ġpragma": 3682,
      "Iterator": 3683,
      "tition": 3684,
      "ĠSub": 3685,
      "Union": 3686,
      "Ġfmt": 3687,
      "Ġ[],": 3688,
      "Ġissue": 3689,
      "Ġ\"*": 3690,
      "__()": 3691,
      "Ġhi": 3692,
      "step": 3693,
      "Ġ'_": 3694,
      "Ġ::::": 3695,
      "]))": 3696,
      "mory": 3697,
      "Ġchunk": 3698,
      "ĠCustom": 3699,
      "Ġmethods": 3700,
      "/\")": 3701,
      "Int": 3702,
      "gate": 3703,
      "green": 3704,
      "Ġthread": 3705,
      "choice": 3706,
      "ĠHTTPException": 3707,
      "(__": 3708,
      "IC": 3709,
      "ĠToken": 3710,
      "Ġloader": 3711,
      "URL": 3712,
      "Ġwithin": 3713,
      "common": 3714,
      "Ġagainst": 3715,
      "Update": 3716,
      "fd": 3717,
      "sign": 3718,
      "Ġincrement": 3719,
      "()):": 3720,
      "win": 3721,
      "Ġedge": 3722,
      "ĠBody": 3723,
      "Ġprop": 3724,
      "Ġdataclasses": 3725,
      "frames": 3726,
      "ategy": 3727,
      "ority": 3728,
      "Ġinsp": 3729,
      "__',": 3730,
      "Ġapply": 3731,
      "Ġdifferent": 3732,
      "Ġ'{": 3733,
      "ric": 3734,
      "intain": 3735,
      "CRE": 3736,
      "Function": 3737,
      "Ġrecord": 3738,
      "idd": 3739,
      "emplate": 3740,
      "basic": 3741,
      "Ġallowed": 3742,
      "Person": 3743,
      ":\\": 3744,
      "sort": 3745,
      "Ġscheme": 3746,
      "autoincrement": 3747,
      "Ġzip": 3748,
      "Cache": 3749,
      "ML": 3750,
      "Ġinit": 3751,
      "Ġinformation": 3752,
      "pas": 3753,
      "ĠCamila": 3754,
      "compression": 3755,
      "ĊĠĠĠĠĠ": 3756,
      "branch": 3757,
      "sqlite": 3758,
      "Ġ32": 3759,
      "postgresql": 3760,
      "wrapper": 3761,
      "Po": 3762,
      "ited": 3763,
      "Ġbet": 3764,
      "Ġ40": 3765,
      "fetchall": 3766,
      "cast": 3767,
      "crate": 3768,
      "Ġcover": 3769,
      "Ġproxy": 3770,
      "owner": 3771,
      "Ġpresent": 3772,
      "ĠRuntimeError": 3773,
      "PA": 3774,
      "UID": 3775,
      "slots": 3776,
      "lates": 3777,
      "ncy": 3778,
      "ĠMo": 3779,
      "Annotated": 3780,
      "recur": 3781,
      "ooser": 3782,
      "umeric": 3783,
      "sanity": 3784,
      "OIN": 3785,
      "Tile": 3786,
      "]\"": 3787,
      "ima": 3788,
      "uuid": 3789,
      "nored": 3790,
      "entity": 3791,
      "face": 3792,
      "Ġben": 3793,
      "Ġlocals": 3794,
      "conflict": 3795,
      "illow": 3796,
      "Ġenvironment": 3797,
      "roll": 3798,
      "ĠMetaData": 3799,
      "Module": 3800,
      "band": 3801,
      "}{": 3802,
      "Ġqu": 3803,
      "ters": 3804,
      "Ġspecified": 3805,
      "sis": 3806,
      "verbose": 3807,
      "Ġhighlighter": 3808,
      "Format": 3809,
      "Ġexamples": 3810,
      "TYPE": 3811,
      "ĠOpenAPI": 3812,
      "alization": 3813,
      "Ġlay": 3814,
      "Ġunique": 3815,
      "lask": 3816,
      "net": 3817,
      "Ġ{\"$": 3818,
      "dated": 3819,
      "Ġca": 3820,
      "Ġtask": 3821,
      "Ġconstruct": 3822,
      "posit": 3823,
      "Command": 3824,
      "oauth": 3825,
      "ĠGet": 3826,
      "FAULT": 3827,
      "World": 3828,
      "Ġimp": 3829,
      "uage": 3830,
      "%(": 3831,
      "ĠDo": 3832,
      "Ġprevious": 3833,
      "Ġrecursive": 3834,
      "rid": 3835,
      "ssql": 3836,
      "Basic": 3837,
      "profile": 3838,
      "Ġdataclass": 3839,
      "ween": 3840,
      "Check": 3841,
      "Do": 3842,
      "sol": 3843,
      "TypeError": 3844,
      "Ġpoint": 3845,
      "Ġboth": 3846,
      "shape": 3847,
      "Ġpool": 3848,
      "sitive": 3849,
      "LA": 3850,
      "clear": 3851,
      "Ġdirectly": 3852,
      "Ġpolymorphic": 3853,
      "Step": 3854,
      "Ġ')]": 3855,
      "Ġprompt": 3856,
      "quire": 3857,
      "Ġensure": 3858,
      "Ġopenapi": 3859,
      "bul": 3860,
      "zip": 3861,
      "ĠDi": 3862,
      "ĠBar": 3863,
      "Ġrelease": 3864,
      "rollback": 3865,
      "90": 3866,
      "pub": 3867,
      "ĠTuple": 3868,
      "Ġleaf": 3869,
      "Renderable": 3870,
      "contains": 3871,
      "bbox": 3872,
      "wright": 3873,
      "erce": 3874,
      "precationWarning": 3875,
      "mension": 3876,
      "Ġbit": 3877,
      "Ġbinary": 3878,
      "Ġdevice": 3879,
      "ĠMapping": 3880,
      "mbol": 3881,
      "rowser": 3882,
      "Ġflag": 3883,
      "Ġcreated": 3884,
      "eeeeeeeeeeeeeeee": 3885,
      "umpy": 3886,
      "cookies": 3887,
      "Ġcell": 3888,
      "__:": 3889,
      "correct": 3890,
      "Ġcannot": 3891,
      "Ġauthentic": 3892,
      "UM": 3893,
      "adapter": 3894,
      "Ġconfiguration": 3895,
      "mappers": 3896,
      "Ġrepresent": 3897,
      "ategory": 3898,
      "Pri": 3899,
      "Ġbad": 3900,
      "Ġforma": 3901,
      "/',": 3902,
      "aintain": 3903,
      "unset": 3904,
      "Ġconver": 3905,
      "andom": 3906,
      "respon": 3907,
      "1111": 3908,
      "lastname": 3909,
      "ARG": 3910,
      "sample": 3911,
      "windows": 3912,
      "cent": 3913,
      "Generator": 3914,
      "FO": 3915,
      "Ġ''": 3916,
      "uning": 3917,
      "transaction": 3918,
      "Ġ\"[": 3919,
      "Ġfix": 3920,
      "attention": 3921,
      "Ġmapping": 3922,
      "flag": 3923,
      "zzzz": 3924,
      ",),": 3925,
      "Ġblack": 3926,
      "Ġblue": 3927,
      "ssl": 3928,
      "enchmark": 3929,
      "nodes": 3930,
      "Ġexecute": 3931,
      "Style": 3932,
      "zone": 3933,
      "tell": 3934,
      "allback": 3935,
      "poch": 3936,
      "Ġcap": 3937,
      "Ġ`'": 3938,
      "something": 3939,
      "paramref": 3940,
      "ĠCore": 3941,
      "lative": 3942,
      "Ġwell": 3943,
      "Ġoverride": 3944,
      "Params": 3945,
      "Ġbrowser": 3946,
      "Ġ{}}": 3947,
      "Ġduring": 3948,
      "byte": 3949,
      ",)": 3950,
      "TH": 3951,
      "ites": 3952,
      "}),": 3953,
      "entry": 3954,
      "Ġliteral": 3955,
      "overflow": 3956,
      "MO": 3957,
      "operator": 3958,
      "Ġemail": 3959,
      "Ġcalls": 3960,
      "ynchronize": 3961,
      "pkg": 3962,
      "PER": 3963,
      "capture": 3964,
      "inspect": 3965,
      "repo": 3966,
      "Ġreference": 3967,
      "Inter": 3968,
      "Ġplace": 3969,
      "ĠNode": 3970,
      "av": 3971,
      "keep": 3972,
      "Ġrgb": 3973,
      "Ġcompare": 3974,
      "ULL": 3975,
      "........": 3976,
      "Url": 3977,
      "anspa": 3978,
      "coded": 3979,
      "ĠMaintain": 3980,
      "trunc": 3981,
      "chooser": 3982,
      "Ġextension": 3983,
      "passed": 3984,
      "Patch": 3985,
      "Ġro": 3986,
      "Ġthem": 3987,
      "roken": 3988,
      "Ġ[])": 3989,
      "steps": 3990,
      "ights": 3991,
      "Ġfeatures": 3992,
      "ees": 3993,
      "Ġterm": 3994,
      "ummy": 3995,
      "ĠSome": 3996,
      "Ġstdout": 3997,
      "ĠCLI": 3998,
      "loyees": 3999,
      "Ġsorted": 4000,
      "Ġpickle": 4001,
      ")[": 4002,
      "Ġpop": 4003,
      "ools": 4004,
      "Ġadded": 4005,
      "lan": 4006,
      "lice": 4007,
      "iddle": 4008,
      "02": 4009,
      "Mixin": 4010,
      "alpha": 4011,
      "Ġcomplete": 4012,
      "Ġ15": 4013,
      "Ġdir": 4014,
      "Protocol": 4015,
      "Ġserialization": 4016,
      "unicode": 4017,
      "Authorization": 4018,
      "ale": 4019,
      "Ġiniti": 4020,
      "mployee": 4021,
      "Ġpart": 4022,
      "Ġrecursion": 4023,
      "mkdir": 4024,
      "Ġbenchmark": 4025,
      "CM": 4026,
      "global": 4027,
      "hether": 4028,
      "cell": 4029,
      "Ġdriver": 4030,
      "toml": 4031,
      "ĠCheck": 4032,
      "combin": 4033,
      "cision": 4034,
      "forme": 4035,
      "Ġloaded": 4036,
      "Method": 4037,
      "Bad": 4038,
      "Ġ'''": 4039,
      "prepare": 4040,
      "mbers": 4041,
      "ĠProvide": 4042,
      "Ġorm": 4043,
      "Ġprogress": 4044,
      "</": 4045,
      "Raises": 4046,
      "`__": 4047,
      "frozen": 4048,
      "Ġfunctions": 4049,
      "try": 4050,
      "Ġperson": 4051,
      "Ġautomatic": 4052,
      ":`~": 4053,
      "Ġhash": 4054,
      "dele": 4055,
      "onkeyPatch": 4056,
      "44": 4057,
      "Found": 4058,
      "Li": 4059,
      "Ġanother": 4060,
      "ĠIO": 4061,
      "Ġposition": 4062,
      "TypedDict": 4063,
      "tect": 4064,
      "markup": 4065,
      "Ġmodels": 4066,
      "66": 4067,
      "Ġ{%": 4068,
      "paste": 4069,
      "xied": 4070,
      "serve": 4071,
      "Ġaccess": 4072,
      "*\",": 4073,
      "bstract": 4074,
      "endpoint": 4075,
      "SERT": 4076,
      "Bo": 4077,
      "spec": 4078,
      "}\":": 4079,
      "ĠAttributeError": 4080,
      "private": 4081,
      "mpling": 4082,
      "wrapped": 4083,
      "Ġorigin": 4084,
      "combinations": 4085,
      "dest": 4086,
      "Ġuow": 4087,
      "unknown": 4088,
      "Header": 4089,
      "rection": 4090,
      "Ġparts": 4091,
      "Ġgreen": 4092,
      "ĠĠĠĠĠĠĠĠĠĠĠĠĠĠĠĠĠĠĠĠĠĠĠĠĠĠĠĠĠĠĠĠĠĠĠĠĠĠĠĠĠĠĠĠĠĠĠĠĠĠĠĠĠĠĠĠĠĠĠĠĠĠĠĠ": 4093,
      "Ġrep": 4094,
      "myid": 4095,
      "ĠExample": 4096,
      "ĠORM": 4097,
      "DB": 4098,
      "WORD": 4099,
      "parsing": 4100,
      "scopes": 4101,
      "std": 4102,
      "Ġbits": 4103,
      "ang": 4104,
      "Ġsure": 4105,
      "now": 4106,
      "()[": 4107,
      "Ġexpr": 4108,
      "monkey": 4109,
      "Ġcollections": 4110,
      "COMPLETE": 4111,
      "Ġcrate": 4112,
      "Ġtho": 4113,
      "Ġthese": 4114,
      "ĠSec": 4115,
      "plan": 4116,
      "asyncio": 4117,
      "Ġtokens": 4118,
      "Ġotherwise": 4119,
      "monkeypatch": 4120,
      "inline": 4121,
      "should": 4122,
      "Ġrequests": 4123,
      "Proper": 4124,
      "blue": 4125,
      "comes": 4126,
      "Line": 4127,
      "Ġage": 4128,
      "Ġreceive": 4129,
      "Ġstash": 4130,
      "Ġverbose": 4131,
      "reason": 4132,
      "Ġsupports": 4133,
      "Ġsplit": 4134,
      "'`": 4135,
      "Ġreal": 4136,
      "'}]": 4137,
      "CHECK": 4138,
      "TO": 4139,
      "cal": 4140,
      "Ġ\"{": 4141,
      "Ġ256": 4142,
      "Ġnested": 4143,
      "Ġcontents": 4144,
      "CA": 4145,
      "Ġpk": 4146,
      "Ġport": 4147,
      "Ġeven": 4148,
      "duction": 4149,
      "WW": 4150,
      "ross": 4151,
      "ĠSet": 4152,
      "how": 4153,
      "Ġsystem": 4154,
      "criter": 4155,
      "www": 4156,
      "Kw": 4157,
      "ðŁ": 4158,
      "opts": 4159,
      "AndJson": 4160,
      "lank": 4161,
      "Ġpeople": 4162,
      "urity": 4163,
      "Ġsort": 4164,
      "Reg": 4165,
      "(\"/\")": 4166,
      "groups": 4167,
      "Ġexplicit": 4168,
      "Ġdisplay": 4169,
      "Ġincrementally": 4170,
      "_{": 4171,
      "Ġ({'": 4172,
      "rs": 4173,
      "Loader": 4174,
      "Can": 4175,
      "KE": 4176,
      "tree": 4177,
      "Ġtags": 4178,
      "Ġbuf": 4179,
      "Kwargs": 4180,
      "forward": 4181,
      "train": 4182,
      "Process": 4183,
      "ĠJOIN": 4184,
      "ĠProduce": 4185,
      "Ġcompletion": 4186,
      "websocket": 4187,
      "scriptor": 4188,
      "ĠMeasurement": 4189,
      "Ġcorrect": 4190,
      "Collection": 4191,
      "Ġred": 4192,
      "ĠSE": 4193,
      "hide": 4194,
      "jpeg": 4195,
      "ĠSer": 4196,
      "Control": 4197,
      "criminator": 4198,
      "Ġsign": 4199,
      "expi": 4200,
      "OPT": 4201,
      "ZE": 4202,
      "ĠOr": 4203,
      "ĠSelf": 4204,
      "bc": 4205,
      "ient": 4206,
      "setdefault": 4207,
      "uplicate": 4208,
      "tif": 4209,
      "Ġsha": 4210,
      "Ġconstraint": 4211,
      "rences": 4212,
      "Returns": 4213,
      "Ġverify": 4214,
      "cccccccc": 4215,
      "Ġsummary": 4216,
      "wrong": 4217,
      "hes": 4218,
      "tical": 4219,
      "Ġflags": 4220,
      "Ġwhose": 4221,
      "align": 4222,
      "Ġvia": 4223,
      "Ġlang": 4224,
      "ĠAssert": 4225,
      "Ġopt": 4226,
      "Ġwrapper": 4227,
      "benchmark": 4228,
      "vable": 4229,
      "Ġsince": 4230,
      "pared": 4231,
      "Report": 4232,
      "ases": 4233,
      "ength": 4234,
      "ĠHeader": 4235,
      "translated": 4236,
      "aaaaaaaaaaaaaaaa": 4237,
      "BytesIO": 4238,
      "Mapping": 4239,
      "Ġprev": 4240,
      "Ġexists": 4241,
      "sqlalchemy": 4242,
      "Ġ@@": 4243,
      "Role": 4244,
      "PRO": 4245,
      "Ġ\"#": 4246,
      "Ġresp": 4247,
      "Segment": 4248,
      "fk": 4249,
      "Ġfrozen": 4250,
      "Ġ_,": 4251,
      "without": 4252,
      "day": 4253,
      "Ġformatted": 4254,
      "Ġmarks": 4255,
      "Ġindic": 4256,
      "apply": 4257,
      "Ġrandom": 4258,
      "Bearer": 4259,
      "sensitive": 4260,
      "Out": 4261,
      "Ġbaz": 4262,
      "Ġstep": 4263,
      "Ġ14": 4264,
      "Ġprovide": 4265,
      "Arg": 4266,
      "popu": 4267,
      "HEAD": 4268,
      "ick": 4269,
      "ĠĠĠĠĠĠĠĠĠ": 4270,
      "Ġregex": 4271,
      "Ġequal": 4272,
      "\"'": 4273,
      ".'": 4274,
      "Ġjoin": 4275,
      "repe": 4276,
      "licen": 4277,
      "Ġmany": 4278,
      "Ġsepar": 4279,
      "mitted": 4280,
      "complex": 4281,
      "DL": 4282,
      "EX": 4283,
      "cer": 4284,
      "mutable": 4285,
      "Ġtb": 4286,
      "ĠPo": 4287,
      "Expression": 4288,
      "sizes": 4289,
      "manifest": 4290,
      "Ġspecific": 4291,
      "Ġhello": 4292,
      "Ġio": 4293,
      "ĠPyAndJson": 4294,
      "reference": 4295,
      "pository": 4296,
      "UB": 4297,
      "else": 4298,
      "Decorator": 4299,
      "ustome": 4300,
      "specific": 4301,
      "nullable": 4302,
      "Ġbatch": 4303,
      "Ġincluded": 4304,
      "john": 4305,
      "cale": 4306,
      "CREATE": 4307,
      "CHECKING": 4308,
      "ĠEngineer": 4309,
      "\")]": 4310,
      "Ġnote": 4311,
      "Entity": 4312,
      "ĠRE": 4313,
      "Ġchanges": 4314,
      "oooooooo": 4315,
      "eager": 4316,
      "yter": 4317,
      "Ġret": 4318,
      "Ġreloaded": 4319,
      "upyter": 4320,
      "Ġmask": 4321,
      "Ġgreater": 4322,
      "Ġshard": 4323,
      "Runner": 4324,
      "'}}},": 4325,
      "Ġclean": 4326,
      "Content": 4327,
      "ĠDE": 4328,
      "Ġpositional": 4329,
      "ociation": 4330,
      "Ġtw": 4331,
      "ursor": 4332,
      "__}": 4333,
      "ĠPa": 4334,
      "ends": 4335,
      "Ġflask": 4336,
      "Ġfollowing": 4337,
      "criteria": 4338,
      "VALU": 4339,
      "ĠTY": 4340,
      "ports": 4341,
      "crete": 4342,
      "Ġargparse": 4343,
      "cript": 4344,
      "reet": 4345,
      "Ġ\"%": 4346,
      "Ġ\"<": 4347,
      "Ġdefinition": 4348,
      "Ġnamespace": 4349,
      "computed": 4350,
      "ĠKeyError": 4351,
      "snapshot": 4352,
      "lap": 4353,
      "Ġeither": 4354,
      "Ġsent": 4355,
      "Ġraised": 4356,
      "ookies": 4357,
      "Ġmodules": 4358,
      "fg": 4359,
      "search": 4360,
      "Ġyour": 4361,
      "Ġtrunc": 4362,
      "expand": 4363,
      "lish": 4364,
      "modified": 4365,
      "Ġlook": 4366,
      "Ġarr": 4367,
      "Ġwere": 4368,
      "Mock": 4369,
      "utils": 4370,
      "duration": 4371,
      "Ã©": 4372,
      "Ġ',": 4373,
      "scaped": 4374,
      "Map": 4375,
      "tc": 4376,
      "getvalue": 4377,
      ")]):": 4378,
      "ERSION": 4379,
      "37": 4380,
      "metri": 4381,
      "Ġhighlight": 4382,
      "acle": 4383,
      "Ġelements": 4384,
      "View": 4385,
      ">\"": 4386,
      "copg": 4387,
      "inel": 4388,
      "Ġcompiled": 4389,
      "INT": 4390,
      "validations": 4391,
      "Ġstacklevel": 4392,
      "hs": 4393,
      "Ġalways": 4394,
      "ĠWhether": 4395,
      "Ġstates": 4396,
      "plugins": 4397,
      "variant": 4398,
      "Change": 4399,
      "Mode": 4400,
      "Ġautomatically": 4401,
      "+)": 4402,
      "jack": 4403,
      "fake": 4404,
      "orders": 4405,
      "stamp": 4406,
      "Ġbbox": 4407,
      "Ġinternal": 4408,
      "Ġok": 4409,
      "dependencies": 4410,
      "Import": 4411,
      "Ġge": 4412,
      "arge": 4413,
      "Ġalpha": 4414,
      "Ġtrain": 4415,
      "pages": 4416,
      "Ġclose": 4417,
      "fine": 4418,
      "Ġclause": 4419,
      "lazy": 4420,
      "GI": 4421,
      "_)": 4422,
      "Ġversionchanged": 4423,
      "credentials": 4424,
      "ĠJson": 4425,
      "variable": 4426,
      "Palette": 4427,
      "Ġbetween": 4428,
      "'{\"": 4429,
      "rency": 4430,
      "lim": 4431,
      "fixed": 4432,
      "jpg": 4433,
      "medi": 4434,
      "tenv": 4435,
      "joinpath": 4436,
      "calls": 4437,
      "Proxy": 4438,
      "AND": 4439,
      "termine": 4440,
      "Ġstatically": 4441,
      "242": 4442,
      "PS": 4443,
      "nStep": 4444,
      "Ġfi": 4445,
      "Ġworld": 4446,
      "Ġsection": 4447,
      "etadata": 4448,
      "Level": 4449,
      "[...,": 4450,
      "bove": 4451,
      "Order": 4452,
      "=[\"": 4453,
      "We": 4454,
      "enter": 4455,
      "ĠIndex": 4456,
      "Ġfeature": 4457,
      "Only": 4458,
      "ustomer": 4459,
      "(('": 4460,
      "Is": 4461,
      "vocabulary": 4462,
      "stri": 4463,
      "ĠCom": 4464,
      "ĠLo": 4465,
      "Ġbackground": 4466,
      "GER": 4467,
      "counter": 4468,
      "raction": 4469,
      "Ġapplication": 4470,
      "NC": 4471,
      "TI": 4472,
      "bits": 4473,
      "cked": 4474,
      "peed": 4475,
      "parts": 4476,
      "aliased": 4477,
      "Unset": 4478,
      ".',": 4479,
      "ĊĠĠĠĠĠĠĠĠĠĠ": 4480,
      "lem": 4481,
      "ĠCode": 4482,
      "rawmode": 4483,
      "QU": 4484,
      "ear": 4485,
      "stats": 4486,
      "Ġini": 4487,
      "chunk": 4488,
      "ird": 4489,
      "numbers": 4490,
      "Ġannotations": 4491,
      "Parent": 4492,
      "Ġclasses": 4493,
      "Ġzero": 4494,
      "meri": 4495,
      "rash": 4496,
      "Ġ13": 4497,
      "abs": 4498,
      "Ġtables": 4499,
      "ĊĠĠĠĠĠĠ": 4500,
      "Date": 4501,
      "tz": 4502,
      "when": 4503,
      "()}": 4504,
      "__.__": 4505,
      "itString": 4506,
      "Ġprice": 4507,
      "ĠNote": 4508,
      "keywords": 4509,
      "isinstance": 4510,
      "istic": 4511,
      "httpx": 4512,
      "Ġapplied": 4513,
      "96": 4514,
      "NING": 4515,
      "Ġimpl": 4516,
      "pagate": 4517,
      "ĠOn": 4518,
      "icro": 4519,
      "Ġuseful": 4520,
      "(...,": 4521,
      "bound": 4522,
      "Ġspa": 4523,
      "ĠTO": 4524,
      "Ġruff": 4525,
      "âĶĢâĶĢâĶĢ": 4526,
      "FROM": 4527,
      "rec": 4528,
      "Ġ{'/": 4529,
      "Constraint": 4530,
      "training": 4531,
      "choices": 4532,
      "Ġtyp": 4533,
      "ĠMyModel": 4534,
      "seed": 4535,
      "pet": 4536,
      "tofile": 4537,
      "staticmethod": 4538,
      ">\\": 4539,
      "iterable": 4540,
      "dev": 4541,
      "conftest": 4542,
      "Ġarray": 4543,
      "shard": 4544,
      "Ġpathlib": 4545,
      "Ġmypy": 4546,
      "Ġcontaining": 4547,
      "06": 4548,
      "mssql": 4549,
      "stic": 4550,
      "vision": 4551,
      "refresh": 4552,
      "mypy": 4553,
      "Ġbackref": 4554,
      "CON": 4555,
      "hex": 4556,
      "Ġ')": 4557,
      "Ġnonlocal": 4558,
      "'d": 4559,
      "Ġsafe": 4560,
      "Ġchanged": 4561,
      "uate": 4562,
      "ĠTra": 4563,
      "Ġitself": 4564,
      "Ġcollect": 4565,
      "pending": 4566,
      "ATED": 4567,
      "Ġinstalled": 4568,
      "Ġdependency": 4569,
      "merge": 4570,
      "Ġaliased": 4571,
      "Ġmytable": 4572,
      "Generic": 4573,
      "bility": 4574,
      "crop": 4575,
      "Ġisn": 4576,
      "Ġunchanged": 4577,
      "comments": 4578,
      "Ġreduction": 4579,
      "rou": 4580,
      "leting": 4581,
      "CI": 4582,
      "Ġ(),": 4583,
      "):\\": 4584,
      "Ġcould": 4585,
      "PIL": 4586,
      "\"][\"": 4587,
      "ForeignKey": 4588,
      "Ġcy": 4589,
      "ading": 4590,
      "found": 4591,
      "Ġbuild": 4592,
      "Wrapper": 4593,
      "joinedload": 4594,
      "jor": 4595,
      "Ġprovable": 4596,
      "Ġrecurrence": 4597,
      "definitions": 4598,
      "CUR": 4599,
      "qm": 4600,
      "Ġflush": 4601,
      "figs": 4602,
      "\")],": 4603,
      "Description": 4604,
      "edge": 4605,
      "optimizer": 4606,
      "Ġalign": 4607,
      "scale": 4608,
      "Length": 4609,
      "ccur": 4610,
      "Ġentity": 4611,
      "board": 4612,
      "trace": 4613,
      "Ġdiscriminator": 4614,
      "failure": 4615,
      "extensions": 4616,
      "SyntaxError": 4617,
      "annotated": 4618,
      "Ġentry": 4619,
      "ĠAct": 4620,
      "ĠTrans": 4621,
      "holder": 4622,
      "Creating": 4623,
      "\"]:": 4624,
      "Extra": 4625,
      "YNC": 4626,
      "clean": 4627,
      "Ġavo": 4628,
      "Ġcte": 4629,
      "resol": 4630,
      "subprocess": 4631,
      "Ġadditional": 4632,
      "Filter": 4633,
      "idual": 4634,
      "')`.": 4635,
      "Ġcomparison": 4636,
      "ottom": 4637,
      ":::::": 4638,
      "@::::@::::@::::@::::": 4639,
      ",\\": 4640,
      "One": 4641,
      "eded": 4642,
      "Ġterminal": 4643,
      "Ġ...]": 4644,
      "ker": 4645,
      "install": 4646,
      "App": 4647,
      "`).": 4648,
      "Ġoccur": 4649,
      "Ġshell": 4650,
      "abstract": 4651,
      "Ġcompile": 4652,
      "'}],": 4653,
      "functions": 4654,
      "Ġ64": 4655,
      "dfParser": 4656,
      "Ġtransaction": 4657,
      "hy": 4658,
      "osite": 4659,
      "tw": 4660,
      "ably": 4661,
      "ITH": 4662,
      "23": 4663,
      "Equal": 4664,
      "Ġ\"'": 4665,
      "define": 4666,
      "ries": 4667,
      "ĠLe": 4668,
      "Ġcommit": 4669,
      "Ġignored": 4670,
      "display": 4671,
      "Ġ{{": 4672,
      "ĠSimple": 4673,
      "Ġparsed": 4674,
      "Ġtimedelta": 4675,
      "straints": 4676,
      "Ġinstances": 4677,
      "assignment": 4678,
      "Ġunicode": 4679,
      "MIT": 4680,
      "reset": 4681,
      "ĠPre": 4682,
      "Ġmodi": 4683,
      "ĠUP": 4684,
      "ĠNO": 4685,
      "Settings": 4686,
      "Ġminimum": 4687,
      "scoped": 4688,
      "ĠSELECT": 4689,
      "nake": 4690,
      "sep": 4691,
      "asca": 4692,
      "Ġdecimal": 4693,
      "Ġnull": 4694,
      "addoption": 4695,
      "gradient": 4696,
      "redirects": 4697,
      "ĠCompiledSQL": 4698,
      "panel": 4699,
      "ĠSecurity": 4700,
      "ND": 4701,
      "ja": 4702,
      "notes": 4703,
      "ĠSET": 4704,
      "Deleting": 4705,
      "Ġgit": 4706,
      "ĠNOT": 4707,
      "Ġlet": 4708,
      "INE": 4709,
      "Ġcheckpoint": 4710,
      "456": 4711,
      "76": 4712,
      "just": 4713,
      "pdf": 4714,
      "uses": 4715,
      "Ġ\"(": 4716,
      "coerce": 4717,
      "lip": 4718,
      "assets": 4719,
      "Ġhost": 4720,
      "'}]}": 4721,
      "employee": 4722,
      "CoreSchema": 4723,
      "Ġconverted": 4724,
      "ever": 4725,
      "icode": 4726,
      "je": 4727,
      "ting": 4728,
      "alone": 4729,
      "Ġfill": 4730,
      "serted": 4731,
      "features": 4732,
      "MENT": 4733,
      "Python": 4734,
      "Ġplatform": 4735,
      "localhost": 4736,
      "bands": 4737,
      "KEY": 4738,
      "Ġembedding": 4739,
      "TED": 4740,
      "âĶģ\\": 4741,
      "isolation": 4742,
      "ssible": 4743,
      "endswith": 4744,
      "Fa": 4745,
      "aml": 4746,
      "Ġ25": 4747,
      "ANY": 4748,
      "Child": 4749,
      "ored": 4750,
      "Ġ()": 4751,
      "admin": 4752,
      "ĠScope": 4753,
      "Ġ::": 4754,
      "ĠPerson": 4755,
      "Named": 4756,
      "Ġchoices": 4757,
      "BU": 4758,
      "()`.": 4759,
      "Ġexceptions": 4760,
      "dddd": 4761,
      "allowed": 4762,
      "ĠWeb": 4763,
      "!\")": 4764,
      "Template": 4765,
      "YK": 4766,
      "cap": 4767,
      "real": 4768,
      "Ġabove": 4769,
      "Typer": 4770,
      "environment": 4771,
      "Ġside": 4772,
      "Ġexit": 4773,
      "ions": 4774,
      "Deprecated": 4775,
      "stener": 4776,
      "Meta": 4777,
      "Ġorders": 4778,
      "quoted": 4779,
      "ĠTYPE": 4780,
      "_.": 4781,
      "double": 4782,
      "guide": 4783,
      "Ġcategory": 4784,
      "unch": 4785,
      "Ġdraw": 4786,
      "refs": 4787,
      "extract": 4788,
      "tities": 4789,
      "sim": 4790,
      "ments": 4791,
      "Ġmerge": 4792,
      "Ġnamed": 4793,
      "Ġtakes": 4794,
      "events": 4795,
      "once": 4796,
      "tification": 4797,
      "results": 4798,
      "ROOT": 4799,
      "random": 4800,
      "POST": 4801,
      "cro": 4802,
      "ĠâĶ": 4803,
      "Ġcer": 4804,
      "Ġmember": 4805,
      "Ġlower": 4806,
      "DIR": 4807,
      "Execute": 4808,
      "merican": 4809,
      "but": 4810,
      "digest": 4811,
      "quotes": 4812,
      "ducts": 4813,
      "called": 4814,
      "tb": 4815,
      "Ġmagic": 4816,
      "enabled": 4817,
      "ĠOther": 4818,
      "Ġvocabulary": 4819,
      "xxx": 4820,
      "Ġdefaults": 4821,
      "Ġinstall": 4822,
      "characters": 4823,
      "orter": 4824,
      "Ġsetting": 4825,
      "proc": 4826,
      "TestCase": 4827,
      "Ġcompression": 4828,
      "ĠDecimal": 4829,
      "indexes": 4830,
      "hi": 4831,
      "pl": 4832,
      "too": 4833,
      "dec": 4834,
      "Ġdrop": 4835,
      "ĠUN": 4836,
      "comparison": 4837,
      "quiv": 4838,
      "ware": 4839,
      "Ġuselist": 4840,
      "Values": 4841,
      "Profile": 4842,
      "returns": 4843,
      "positive": 4844,
      "Ġcredentials": 4845,
      "CMYK": 4846,
      "bash": 4847,
      "kind": 4848,
      "tected": 4849,
      "Ġmatches": 4850,
      "DEFAULT": 4851,
      "recursive": 4852,
      "sla": 4853,
      "ĠCol": 4854,
      "xies": 4855,
      "Ġnumbers": 4856,
      "ĠParameter": 4857,
      "70": 4858,
      "inja": 4859,
      "leaf": 4860,
      "progress": 4861,
      "helper": 4862,
      "Ġruntime": 4863,
      "Ġcreator": 4864,
      "Ġworkspace": 4865,
      "ĠBaseException": 4866,
      "Like": 4867,
      "Property": 4868,
      "95": 4869,
      "await": 4870,
      "\":\"": 4871,
      "Ġescape": 4872,
      "ancel": 4873,
      "Ġenum": 4874,
      "Select": 4875,
      "serialize": 4876,
      "Ġgenerator": 4877,
      "Ġinherit": 4878,
      "variation": 4879,
      "Ġexpand": 4880,
      "================": 4881,
      "ascade": 4882,
      "88": 4883,
      "torch": 4884,
      "ilt": 4885,
      "compiled": 4886,
      "Directory": 4887,
      "ling": 4888,
      "same": 4889,
      "syntax": 4890,
      "Ġtheir": 4891,
      "Ġinvoke": 4892,
      "Ġexif": 4893,
      "preview": 4894,
      "Ġcompati": 4895,
      "flask": 4896,
      "ampling": 4897,
      "brid": 4898,
      "stop": 4899,
      "members": 4900,
      "arm": 4901,
      "Ġstd": 4902,
      "Ġ%(": 4903,
      "Ġiterable": 4904,
      "validators": 4905,
      "Bu": 4906,
      "inher": 4907,
      "Ġcwd": 4908,
      "Ġscalar": 4909,
      "similar": 4910,
      "Gra": 4911,
      "ĠTo": 4912,
      "Ġsubclass": 4913,
      "Dis": 4914,
      "lon": 4915,
      "Ġast": 4916,
      "erc": 4917,
      "odbc": 4918,
      "Ġparen": 4919,
      "access": 4920,
      "voice": 4921,
      "**:": 4922,
      "RenderableType": 4923,
      "OPTIONS": 4924,
      "gative": 4925,
      "world": 4926,
      "Expected": 4927,
      "days": 4928,
      "ayout": 4929,
      "spection": 4930,
      "Form": 4931,
      "Tiff": 4932,
      "cle": 4933,
      "Ġcal": 4934,
      "Ġfuture": 4935,
      "Ġwritten": 4936,
      "Ġstar": 4937,
      "Resampling": 4938,
      "changes": 4939,
      "Ġlocation": 4940,
      "21": 4941,
      "=%": 4942,
      "}`": 4943,
      "------": 4944,
      "okay": 4945,
      "NotFound": 4946,
      "Operator": 4947,
      "lets": 4948,
      "oned": 4949,
      "Items": 4950,
      "Ġgeneric": 4951,
      "Ġspecial": 4952,
      "renderables": 4953,
      "=-": 4954,
      "Cursor": 4955,
      "]\",": 4956,
      "_=": 4957,
      "epoch": 4958,
      "ĠRen": 4959,
      "language": 4960,
      "center": 4961,
      "ĠCliRunner": 4962,
      "-%": 4963,
      "ROR": 4964,
      "batch": 4965,
      "Ġcookies": 4966,
      "Ġdecode": 4967,
      "Ġstop": 4968,
      "Decimal": 4969,
      "ĠMock": 4970,
      ")`.": 4971,
      "atat": 4972,
      "paren": 4973,
      "\"\")": 4974,
      "andalone": 4975,
      "commands": 4976,
      "mbedded": 4977,
      "Other": 4978,
      "PAT": 4979,
      "pings": 4980,
      "Ġteardown": 4981,
      "ĠAl": 4982,
      "updates": 4983,
      "Ġids": 4984,
      "ĠArrange": 4985,
      "Generate": 4986,
      "Alchemy": 4987,
      "86": 4988,
      "Ġdid": 4989,
      "Ġ({": 4990,
      "ĠAlias": 4991,
      "Declarative": 4992,
      "ORE": 4993,
      "ĠASYNC": 4994,
      "201": 4995,
      "=['": 4996,
      "Attribute": 4997,
      "VERSION": 4998,
      "cat": 4999,
      "pc": 5000,
      "tuning": 5001,
      "ĠEnum": 5002,
      "Ġ\")": 5003,
      "Ġtz": 5004,
      "nostic": 5005,
      "ĠTABLE": 5006,
      "Ġhero": 5007,
      "parents": 5008,
      "Ġargnames": 5009,
      "ArgumentError": 5010,
      "blocks": 5011,
      "original": 5012,
      "VALUE": 5013,
      "quivale": 5014,
      "',),": 5015,
      "StringIO": 5016,
      "CHAR": 5017,
      "####": 5018,
      "Ġrules": 5019,
      "jection": 5020,
      "501": 5021,
      "Literal": 5022,
      "ags": 5023,
      "mmar": 5024,
      "three": 5025,
      "')):": 5026,
      "Ġ...,": 5027,
      "Ġavoid": 5028,
      "ECT": 5029,
      "Root": 5030,
      "memo": 5031,
      "Ġcookie": 5032,
      "exif": 5033,
      "screen": 5034,
      "BaseException": 5035,
      "minimum": 5036,
      "selectable": 5037,
      "mount": 5038,
      "Ġglobals": 5039,
      "Types": 5040,
      "Ġsetattr": 5041,
      "assertEqual": 5042,
      "ĠGeneric": 5043,
      "itespace": 5044,
      "1000": 5045,
      "31": 5046,
      "Ġ`/": 5047,
      "Ġour": 5048,
      "Ġscale": 5049,
      "Ġversions": 5050,
      "someattr": 5051,
      "roundtrip": 5052,
      "Ġnormalize": 5053,
      "heroes": 5054,
      "94": 5055,
      "]])": 5056,
      "ization": 5057,
      "vance": 5058,
      "measure": 5059,
      "Ġ`*": 5060,
      "ubclass": 5061,
      "\"].": 5062,
      "fill": 5063,
      "Ġopts": 5064,
      "MonkeyPatch": 5065,
      "receive": 5066,
      "ged": 5067,
      "ĠTiff": 5068,
      "const": 5069,
      "Ġhistory": 5070,
      "ĠBytesIO": 5071,
      "Ġmanifest": 5072,
      "/#": 5073,
      "serter": 5074,
      "Ġway": 5075,
      "Ġgood": 5076,
      "Ġnumpy": 5077,
      "Ġwhether": 5078,
      "ĠâĶĤ\\": 5079,
      "Ġformatting": 5080,
      "ĠCoreSchema": 5081,
      "(\\\\": 5082,
      "Ass": 5083,
      "(\".": 5084,
      "Ġgot": 5085,
      "ERROR": 5086,
      "translate": 5087,
      "agnostic": 5088,
      "TYPER": 5089,
      "Ġthose": 5090,
      "By": 5091,
      "If": 5092,
      "fmt": 5093,
      "na": 5094,
      "Ġ:::": 5095,
      "envvar": 5096,
      "wner": 5097,
      "xFF": 5098,
      "Ġidentity": 5099,
      "Ġfit": 5100,
      "getter": 5101,
      "Ġ[`": 5102,
      "objects": 5103,
      "closed": 5104,
      "'}}}}}}": 5105,
      "always": 5106,
      "Ġfine": 5107,
      "mote": 5108,
      "links": 5109,
      "packages": 5110,
      "Comparable": 5111,
      "Number": 5112,
      "OL": 5113,
      "utor": 5114,
      "counts": 5115,
      "adb": 5116,
      "ĠControl": 5117,
      ")})": 5118,
      "26": 5119,
      ":\"": 5120,
      "mixed": 5121,
      "inct": 5122,
      "Ġboolean": 5123,
      "Ġinline": 5124,
      "strument": 5125,
      "(\"-": 5126,
      "DeprecationWarning": 5127,
      "transpa": 5128,
      "Conflict": 5129,
      "Self": 5130,
      "layer": 5131,
      "Ġpick": 5132,
      "Multi": 5133,
      "VAR": 5134,
      "}],": 5135,
      "internal": 5136,
      "magic": 5137,
      "atom": 5138,
      "Ġproduce": 5139,
      "NoArg": 5140,
      "skipped": 5141,
      "RAY": 5142,
      "Price": 5143,
      "rt": 5144,
      "resize": 5145,
      "Depends": 5146,
      "Ġactive": 5147,
      "Ġformatter": 5148,
      "Ġcorrespon": 5149,
      "role": 5150,
      "anon": 5151,
      "Ġsimple": 5152,
      "Ġstrip": 5153,
      "ĠMark": 5154,
      "ĠImageFont": 5155,
      "ĠConnection": 5156,
      "Ġattention": 5157,
      "sertionError": 5158,
      "iltins": 5159,
      "He": 5160,
      "sTest": 5161,
      "ĠAL": 5162,
      "ĠAwait": 5163,
      "ĠBy": 5164,
      "Unknown": 5165,
      "tuples": 5166,
      "workspace": 5167,
      "Metadata": 5168,
      "WHERE": 5169,
      "bus": 5170,
      "crash": 5171,
      "shell": 5172,
      "âķ": 5173,
      "ï¼": 5174,
      "ĊĠĠ": 5175,
      "member": 5176,
      "Ġduration": 5177,
      "Ġ[('": 5178,
      "irs": 5179,
      "Ġflat": 5180,
      "flat": 5181,
      "Ġlayout": 5182,
      "XT": 5183,
      "seque": 5184,
      "Ġ'%": 5185,
      "Ġusage": 5186,
      "ĠTypeAdapter": 5187,
      "Ġcodes": 5188,
      "Dataclass": 5189,
      "ariadb": 5190,
      "ĠUPDATE": 5191,
      "atatype": 5192,
      "Tags": 5193,
      "Ġhead": 5194,
      "Ġpad": 5195,
      "))))": 5196,
      "Ġstats": 5197,
      "Ġgreet": 5198,
      "TestBase": 5199,
      "spawn": 5200,
      "RequestError": 5201,
      "disable": 5202,
      "signature": 5203,
      "quivalent": 5204,
      "!\"": 5205,
      "Pla": 5206,
      "graph": 5207,
      "Ġredirect": 5208,
      "Ġinte": 5209,
      "()`": 5210,
      "Ġunion": 5211,
      "background": 5212,
      "STR": 5213,
      "AA": 5214,
      "PRE": 5215,
      "]'": 5216,
      "Ġbranch": 5217,
      "ĠAd": 5218,
      "dirs": 5219,
      "super": 5220,
      "Ġshort": 5221,
      "rgba": 5222,
      "Ġ')]=": 5223,
      "ĠOrder": 5224,
      "864": 5225,
      "DBAPI": 5226,
      "Usage": 5227,
      "every": 5228,
      "good": 5229,
      "ian": 5230,
      "ving": 5231,
      "vocab": 5232,
      "__).": 5233,
      "ĠPIL": 5234,
      "nector": 5235,
      "usage": 5236,
      "spam": 5237,
      "library": 5238,
      "Ġkind": 5239,
      "Ġworks": 5240,
      "Ġserialized": 5241,
      "uch": 5242,
      "Ġpx": 5243,
      "Ġleast": 5244,
      "ĠArgument": 5245,
      "61": 5246,
      "Source": 5247,
      "Ġ{})": 5248,
      "Ġspeed": 5249,
      "Ġcompiler": 5250,
      "inity": 5251,
      "05": 5252,
      "Employee": 5253,
      "Ġ-=": 5254,
      "\"\"\",": 5255,
      "Ġmost": 5256,
      "lumbus": 5257,
      "Ġenable": 5258,
      "hooks": 5259,
      "ĠYou": 5260,
      "planation": 5261,
      "score": 5262,
      "Ġ(?": 5263,
      "Could": 5264,
      "Delete": 5265,
      "alizer": 5266,
      "timezone": 5267,
      "reflect": 5268,
      "tended": 5269,
      "ĠVer": 5270,
      "Over": 5271,
      "bmp": 5272,
      "Ġevery": 5273,
      "Ġwa": 5274,
      "ragment": 5275,
      "Ġexpi": 5276,
      "Ġactually": 5277,
      "Thread": 5278,
      "ĠChild": 5279,
      "glob": 5280,
      "ĊĊĊĠĠĠ": 5281,
      "Ġfalse": 5282,
      "lax": 5283,
      "Ġ`**": 5284,
      "Ġecho": 5285,
      "Ġsyntax": 5286,
      "orty": 5287,
      "resource": 5288,
      "Exit": 5289,
      "hould": 5290,
      "ĠBY": 5291,
      "UserWarning": 5292,
      "markers": 5293,
      "dropout": 5294,
      "Ġvariables": 5295,
      "Ġremaining": 5296,
      "crates": 5297,
      "license": 5298,
      "EL": 5299,
      "Events": 5300,
      "Socket": 5301,
      "fh": 5302,
      "Ġbook": 5303,
      "Ġext": 5304,
      "onent": 5305,
      "Ġcondition": 5306,
      "clusive": 5307,
      "docstring": 5308,
      "ĠWindows": 5309,
      "Ġlon": 5310,
      "does": 5311,
      "Ġprocessing": 5312,
      "explicit": 5313,
      "encoderinfo": 5314,
      "ĠParent": 5315,
      "JECT": 5316,
      "ycopg": 5317,
      "vers": 5318,
      "Ġdep": 5319,
      "psycopg": 5320,
      "Ġcommands": 5321,
      "Version": 5322,
      "truncate": 5323,
      "77": 5324,
      "shes": 5325,
      "orary": 5326,
      "latest": 5327,
      "control": 5328,
      "Ġstderr": 5329,
      "Ġloss": 5330,
      "isto": 5331,
      "generated": 5332,
      "trailing": 5333,
      "engineer": 5334,
      "Ġaddress": 5335,
      "Load": 5336,
      "âĶĢâĶĢâĶĢâĶĢâĶĢâĶĢâĶĢâĶĢâĶĢâĶĢâĶĢâĶĢâĶĢâĶĢâĶĢâĶĢâĶĢâĶĢâĶĢâĶĢâĶĢâĶĢâĶĢâĶĢâĶĢâĶĢâĶĢâĶĢâĶĢâĶĢâĶĢâĶĢ": 5337,
      "Ġcl": 5338,
      "Ġblank": 5339,
      "markdown": 5340,
      "Parse": 5341,
      "initial": 5342,
      "Namespace": 5343,
      "Ġnormal": 5344,
      "normalize": 5345,
      "Route": 5346,
      "expire": 5347,
      "dtype": 5348,
      "whe": 5349,
      "sess": 5350,
      "lector": 5351,
      "ane": 5352,
      "__[": 5353,
      "002": 5354,
      "Ġencoder": 5355,
      "Ġcolors": 5356,
      "Compile": 5357,
      "(*,": 5358,
      "chars": 5359,
      "xxxxxxxxxxxxxxxx": 5360,
      "Render": 5361,
      "ĠRaisesGroup": 5362,
      "@@@@@@": 5363,
      "Ġraises": 5364,
      "Ġ([": 5365,
      "partition": 5366,
      "ather": 5367,
      "Ġ///": 5368,
      "Ġnewline": 5369,
      "bases": 5370,
      "creen": 5371,
      "Ġcommons": 5372,
      "âĶĢâĶĢâĶĢâĶ": 5373,
      ")'": 5374,
      "story": 5375,
      "rep": 5376,
      "atches": 5377,
      "ĠTh": 5378,
      "ferences": 5379,
      "ĠParam": 5380,
      "InvalidRequestError": 5381,
      "Allow": 5382,
      "John": 5383,
      "angle": 5384,
      "card": 5385,
      "sume": 5386,
      "ONE": 5387,
      "Ġtokenizer": 5388,
      "targets": 5389,
      "iiii": 5390,
      "ĠOnly": 5391,
      "Hero": 5392,
      "RU": 5393,
      "Skip": 5394,
      "big": 5395,
      "tml": 5396,
      "ĊĊĠĠĠĠĠĠĠĠĠĠĠĠĠĠĠĠĠĠĠ": 5397,
      "raqm": 5398,
      "tobytes": 5399,
      "Ġpartial": 5400,
      "Ġysize": 5401,
      "Ġimages": 5402,
      "Ġextract": 5403,
      "ĠSQLAlchemy": 5404,
      "Ġfixtures": 5405,
      "available": 5406,
      "dc": 5407,
      "free": 5408,
      "pload": 5409,
      "Ġfetch": 5410,
      "unct": 5411,
      "most": 5412,
      "Ġseen": 5413,
      "ĠFlask": 5414,
      "Ġstandard": 5415,
      "queue": 5416,
      "ĠĠĠĠĠĠĠĠĠĠĠĠĠĠĠĠĠĠĠĠ": 5417,
      "ART": 5418,
      "JsonSchema": 5419,
      "Ġpopu": 5420,
      "Ġgen": 5421,
      "Decoder": 5422,
      "Ġchannel": 5423,
      "Insert": 5424,
      "TEGER": 5425,
      "Ġcanary": 5426,
      "track": 5427,
      "Ġurllib": 5428,
      "Ġ{}}}},": 5429,
      "istogram": 5430,
      "mariadb": 5431,
      "deep": 5432,
      "Ġpr": 5433,
      "Ġdt": 5434,
      "ising": 5435,
      "Ġmodified": 5436,
      "ocs": 5437,
      "precision": 5438,
      "Ġencoded": 5439,
      "Ġpaths": 5440,
      "Ġreading": 5441,
      "grammar": 5442,
      "Ġsecondary": 5443,
      "28": 5444,
      "GET": 5445,
      "HA": 5446,
      "NG": 5447,
      "boolean": 5448,
      "emoji": 5449,
      "Ġscript": 5450,
      "buf": 5451,
      "irc": 5452,
      "logger": 5453,
      "implicit": 5454,
      "ï¼Į": 5455,
      "sequent": 5456,
      "Cb": 5457,
      "highlight": 5458,
      "arr": 5459,
      "Ġfg": 5460,
      "using": 5461,
      "Ġdisable": 5462,
      "solute": 5463,
      "wheel": 5464,
      "nb": 5465,
      "Ġbackend": 5466,
      "__`,": 5467,
      "appen": 5468,
      "ponsor": 5469,
      "ressed": 5470,
      "webp": 5471,
      "grad": 5472,
      "Ġregister": 5473,
      "Ġsyms": 5474,
      "bulk": 5475,
      "dt": 5476,
      "dynamic": 5477,
      "Ġreprec": 5478,
      "')]": 5479,
      "tainer": 5480,
      "Unsupported": 5481,
      "success": 5482,
      "anel": 5483,
      "undefined": 5484,
      "idget": 5485,
      "(\"_": 5486,
      "ĠForm": 5487,
      "generation": 5488,
      "spans": 5489,
      "Undefined": 5490,
      "9999": 5491,
      "cannot": 5492,
      "ĠServer": 5493,
      "TML": 5494,
      "pad": 5495,
      "Ġ1000": 5496,
      "Ġhand": 5497,
      "cessary": 5498,
      "Comparator": 5499,
      ")},": 5500,
      "oracle": 5501,
      "()).": 5502,
      "versions": 5503,
      "sgi": 5504,
      "Ġshutil": 5505,
      "Ġspecify": 5506,
      "atomic": 5507,
      "defs": 5508,
      "()]):": 5509,
      "ĠINT": 5510,
      "ĊĠĠĠĠĠĠĠĠĠĠĠĠĠĠĠĠĠĠĠĠĠĠĠĠĠĠĠĠĠĠĠĠĠĠĠĠĠĠĠĠĠĠĠĠĠĠĠĠĠĠĠ": 5511,
      "igned": 5512,
      "mbo": 5513,
      "priority": 5514,
      "!!": 5515,
      "*.": 5516,
      "Access": 5517,
      "BC": 5518,
      "Binary": 5519,
      "Tri": 5520,
      "UUID": 5521,
      "pal": 5522,
      "yes": 5523,
      "Ġsim": 5524,
      "Ġdump": 5525,
      "tensor": 5526,
      "Ġsuffix": 5527,
      "('/')": 5528,
      "nodeid": 5529,
      "Ġcause": 5530,
      "writer": 5531,
      "Ġquote": 5532,
      "selected": 5533,
      "ropy": 5534,
      "ellow": 5535,
      "excluded": 5536,
      "Instance": 5537,
      "unittest": 5538,
      "'`.": 5539,
      "']:": 5540,
      "Cr": 5541,
      "hint": 5542,
      "ĠImport": 5543,
      "dia": 5544,
      "Ġmath": 5545,
      "quested": 5546,
      "'].": 5547,
      "ĠRich": 5548,
      "widths": 5549,
      "Unpack": 5550,
      "theme": 5551,
      "fixedquery": 5552,
      "mall": 5553,
      "atty": 5554,
      "Ġetc": 5555,
      "Ġspace": 5556,
      "lyph": 5557,
      "undle": 5558,
      "ically": 5559,
      "ystem": 5560,
      "Encoding": 5561,
      "Ġadapter": 5562,
      "enticate": 5563,
      "ruit": 5564,
      "NamedTuple": 5565,
      "native": 5566,
      "ĊĊĊĠĠĠĠĠĠĠ": 5567,
      "ĠĠĠĠĠĠĠĠĠĠĠĠĠĠ": 5568,
      "\")):": 5569,
      "Ġdirect": 5570,
      "Ġpreserved": 5571,
      "fully": 5572,
      "aptured": 5573,
      "QueryParams": 5574,
      "Ġdetails": 5575,
      "ĠĠĠĠĠĠĠĠĠĠ": 5576,
      "maker": 5577,
      "Ġtree": 5578,
      "Ġdtype": 5579,
      "pyproject": 5580,
      "ished": 5581,
      "ĠBitString": 5582,
      "logits": 5583,
      "transform": 5584,
      "Ġserializer": 5585,
      "Ġskipped": 5586,
      "MAX": 5587,
      "Output": 5588,
      "27": 5589,
      "Simple": 5590,
      "cp": 5591,
      "Ġthing": 5592,
      "condition": 5593,
      "Ġ/)": 5594,
      "Ġlinks": 5595,
      "IF": 5596,
      "cwd": 5597,
      "utdown": 5598,
      "Ġincomplete": 5599,
      "chain": 5600,
      "pecte": 5601,
      "runtest": 5602,
      "initi": 5603,
      "ABC": 5604,
      "ĠK": 5605,
      "Ġâ": 5606,
      "utc": 5607,
      "pep": 5608,
      "Ġouter": 5609,
      "Ġassertion": 5610,
      "Ġstride": 5611,
      "hain": 5612,
      "Ġdoctest": 5613,
      "âĶģâĶģâĶģâĶģâĶģâĶģâĶģâĶģ": 5614,
      "ĠTODO": 5615,
      "Highlighter": 5616,
      "mx": 5617,
      "zing": 5618,
      "Ġratio": 5619,
      "declared": 5620,
      "unge": 5621,
      "Ġcols": 5622,
      "Extension": 5623,
      "Ġorient": 5624,
      "ĠGPT": 5625,
      "domain": 5626,
      "SIZE": 5627,
      "Ġauthentication": 5628,
      "Ġorientation": 5629,
      "Pass": 5630,
      "fs": 5631,
      "xC": 5632,
      "Ġpub": 5633,
      "previous": 5634,
      "Ġmemory": 5635,
      "Ġneeded": 5636,
      "ĠColumnElement": 5637,
      "ĠLO": 5638,
      "checkout": 5639,
      "404": 5640,
      "ĠNamed": 5641,
      "mediate": 5642,
      "AGE": 5643,
      "EST": 5644,
      "Windows": 5645,
      "large": 5646,
      "mi": 5647,
      "push": 5648,
      "iny": 5649,
      "Ġrequires": 5650,
      "Ġday": 5651,
      "sible": 5652,
      "ish": 5653,
      "Ġ960": 5654,
      "symbol": 5655,
      "sentinel": 5656,
      "'re": 5657,
      "draw": 5658,
      "gr": 5659,
      "xer": 5660,
      "sider": 5661,
      "Ġrendered": 5662,
      "transport": 5663,
      "Arguments": 5664,
      "Ġcontainer": 5665,
      "subject": 5666,
      "54": 5667,
      "backend": 5668,
      "desc": 5669,
      "ĠCor": 5670,
      "Ġmeans": 5671,
      "Ġneeds": 5672,
      "Ġvs": 5673,
      "web": 5674,
      "cases": 5675,
      "[:]": 5676,
      "Ġcached": 5677,
      "Ġemployees": 5678,
      "ENER": 5679,
      "Ġpixels": 5680,
      "]`": 5681,
      "separ": 5682,
      "ves": 5683,
      "Ġdele": 5684,
      "Ġonce": 5685,
      "DataObject": 5686,
      "Ġlastname": 5687,
      ";\\": 5688,
      "rot": 5689,
      "ĠImageColor": 5690,
      "\\\\.": 5691,
      "000000": 5692,
      "OnConflict": 5693,
      "401": 5694,
      "To": 5695,
      "ĠST": 5696,
      "proxied": 5697,
      "Const": 5698,
      "Ġplay": 5699,
      "expunge": 5700,
      "Transport": 5701,
      "culate": 5702,
      "lapsed": 5703,
      "ercions": 5704,
      ",))": 5705,
      "alf": 5706,
      "peri": 5707,
      "forbid": 5708,
      "ffec": 5709,
      "Ġenabled": 5710,
      "portal": 5711,
      "ĠInvalid": 5712,
      "Ġsizes": 5713,
      "Columns": 5714,
      "Ġbytearray": 5715,
      "mensions": 5716,
      "Ġblueprint": 5717,
      "formed": 5718,
      "Ġpkg": 5719,
      "TIME": 5720,
      "ploadFile": 5721,
      "400": 5722,
      "fer": 5723,
      "pus": 5724,
      "Ġkeep": 5725,
      "chan": 5726,
      "propagate": 5727,
      "redoc": 5728,
      "inite": 5729,
      "identifier": 5730,
      "Ġrelative": 5731,
      "Ġeffect": 5732,
      "Ġsay": 5733,
      "Comple": 5734,
      "Ġmight": 5735,
      "Ġpartic": 5736,
      "ĠCookie": 5737,
      "Ġaccount": 5738,
      "ĠFieldInfo": 5739,
      "Ġseconds": 5740,
      "Ġreports": 5741,
      "ĠClassVar": 5742,
      "operators": 5743,
      "\"<": 5744,
      "WA": 5745,
      "bom": 5746,
      "pm": 5747,
      "}]": 5748,
      "ntly": 5749,
      "ĠCON": 5750,
      "Ġnet": 5751,
      "Ġ/,": 5752,
      "Ġknown": 5753,
      "PEG": 5754,
      "Ġcomments": 5755,
      "ADME": 5756,
      "BUG": 5757,
      "vanced": 5758,
      "ASE": 5759,
      "Call": 5760,
      "Cookie": 5761,
      "bably": 5762,
      "olation": 5763,
      "ux": 5764,
      "Ġtheme": 5765,
      "Ġincluding": 5766,
      "outcomes": 5767,
      "Ġsynchronize": 5768,
      "redu": 5769,
      "Ġ35": 5770,
      "ĠContext": 5771,
      "Ġupdated": 5772,
      "Ġchoice": 5773,
      "Flask": 5774,
      "tened": 5775,
      "Ġband": 5776,
      "')],": 5777,
      "zed": 5778,
      "']['": 5779,
      "INSERT": 5780,
      "Ġcharset": 5781,
      "ircular": 5782,
      "29": 5783,
      "Ġ\"\")": 5784,
      "modi": 5785,
      "Ġbegin": 5786,
      "versed": 5787,
      "Ġhtml": 5788,
      "ĠUUID": 5789,
      "typ": 5790,
      "argv": 5791,
      "ARY": 5792,
      "decorators": 5793,
      "COLOR": 5794,
      "Ġoperators": 5795,
      "Ġsignature": 5796,
      "500": 5797,
      "Sh": 5798,
      "uzz": 5799,
      "insp": 5800,
      "Ġadata": 5801,
      "Ġrelated": 5802,
      "look": 5803,
      "ĠPost": 5804,
      "Ġ24": 5805,
      "flags": 5806,
      "Ġwrapped": 5807,
      "antization": 5808,
      "yload": 5809,
      "unlink": 5810,
      "lign": 5811,
      "ĠAbstract": 5812,
      "Ġcounter": 5813,
      "matches": 5814,
      "trict": 5815,
      "Ġsubject": 5816,
      "Ġtrailing": 5817,
      "Log": 5818,
      "--------------------------------": 5819,
      "Ġdependencies": 5820,
      "commons": 5821,
      "ĠQ": 5822,
      "ĠZ": 5823,
      "Ġemit": 5824,
      "coped": 5825,
      "()],": 5826,
      "div": 5827,
      "foos": 5828,
      ").\\": 5829,
      "ĠĠĠĠĠĠĠĠĠĠĠĠĠĠĠĠĠĠĠĠĠĠĠ": 5830,
      "argo": 5831,
      "ĠProtocol": 5832,
      "Ġselectable": 5833,
      "sually": 5834,
      "bitrary": 5835,
      "Thing": 5836,
      "STRING": 5837,
      "Scope": 5838,
      "broken": 5839,
      "dpi": 5840,
      "yellow": 5841,
      "points": 5842,
      "ested": 5843,
      "readline": 5844,
      "tokenizer": 5845,
      "Ġmarkup": 5846,
      "records": 5847,
      "ArgsKwargs": 5848,
      "lu": 5849,
      "Ġconftest": 5850,
      "dig": 5851,
      "istered": 5852,
      "poly": 5853,
      "fol": 5854,
      "Expr": 5855,
      "bution": 5856,
      "ĠKeyword": 5857,
      "Has": 5858,
      "LU": 5859,
      "MS": 5860,
      "Ġrequire": 5861,
      "launch": 5862,
      "Ġ'[": 5863,
      "Ġdecoder": 5864,
      "ĠNULL": 5865,
      "Ġpreview": 5866,
      "contextmanager": 5867,
      "Ġendpoint": 5868,
      "Formatter": 5869,
      "Ġuowcommit": 5870,
      "ĠWebSocket": 5871,
      "Ġlonger": 5872,
      "middle": 5873,
      "rstrip": 5874,
      "ĠValidationError": 5875,
      "stable": 5876,
      "Ġaffect": 5877,
      "deferred": 5878,
      "ank": 5879,
      "Ġ'<": 5880,
      "Ġomit": 5881,
      "aves": 5882,
      "backref": 5883,
      "assertRaises": 5884,
      "Logger": 5885,
      "actual": 5886,
      "uploadfile": 5887,
      "hybrid": 5888,
      "lut": 5889,
      "than": 5890,
      "ational": 5891,
      "Ġstrategy": 5892,
      "updated": 5893,
      "('-": 5894,
      "Ġdistance": 5895,
      "Ġdataset": 5896,
      "places": 5897,
      "skipif": 5898,
      "StateChange": 5899,
      "bbbbbbbbbbbbbbbb": 5900,
      "ĠClick": 5901,
      "vocation": 5902,
      "xc": 5903,
      "decl": 5904,
      "Ġborder": 5905,
      "\")])": 5906,
      "soft": 5907,
      "ctories": 5908,
      "Ġxy": 5909,
      "Ġminor": 5910,
      "Ġclosed": 5911,
      "Ġexplicitly": 5912,
      "Ġinitial": 5913,
      "$\",": 5914,
      ",\"": 5915,
      "VER": 5916,
      "ws": 5917,
      "sig": 5918,
      "Ġconst": 5919,
      "timestamp": 5920,
      "Ġunknown": 5921,
      "methods": 5922,
      "Ġpossible": 5923,
      "Ġ1024": 5924,
      "grab": 5925,
      "Ġrefresh": 5926,
      "Ġoptimizer": 5927,
      "Ġrather": 5928,
      "unctools": 5929,
      "duplicate": 5930,
      "utes": 5931,
      "written": 5932,
      "Ġroute": 5933,
      "Ġthree": 5934,
      "hoto": 5935,
      "Ġproto": 5936,
      "Ġ72": 5937,
      "agraph": 5938,
      "Ġregion": 5939,
      "network": 5940,
      "decay": 5941,
      "/':": 5942,
      "ga": 5943,
      "ĠRGB": 5944,
      "Ġowner": 5945,
      "setter": 5946,
      "Ġguide": 5947,
      "rowcount": 5948,
      "HEADER": 5949,
      "NotFoundError": 5950,
      "(\"\"\"": 5951,
      ":%": 5952,
      "Sent": 5953,
      "Sta": 5954,
      "Vari": 5955,
      "xff": 5956,
      "incomplete": 5957,
      "teration": 5958,
      "Ġidentifier": 5959,
      "ells": 5960,
      "constraints": 5961,
      "Ġconfigs": 5962,
      "')))": 5963,
      "Ġdecl": 5964,
      "ical": 5965,
      "'}),": 5966,
      "rules": 5967,
      "sym": 5968,
      "MODE": 5969,
      "mbols": 5970,
      "-{": 5971,
      "FORM": 5972,
      "eos": 5973,
      "repos": 5974,
      "testclient": 5975,
      "Repr": 5976,
      "ensure": 5977,
      "ĠRes": 5978,
      "Internal": 5979,
      "spaces": 5980,
      "Ġsubtitle": 5981,
      "ĠRow": 5982,
      "Ġsuccess": 5983,
      "iterator": 5984,
      "autocommit": 5985,
      "Authenticate": 5986,
      "stribution": 5987,
      "PATH": 5988,
      "IMA": 5989,
      "Iteration": 5990,
      "rema": 5991,
      "\",),": 5992,
      "Ġ19": 5993,
      "Ġhappen": 5994,
      "hour": 5995,
      "aliases": 5996,
      "Ġmeth": 5997,
      "icc": 5998,
      "Ġtuples": 5999,
      "styles": 6000,
      "returncode": 6001,
      "ĠUnicode": 6002,
      "azine": 6003,
      "Ġmarkdown": 6004,
      "URNING": 6005,
      "Ġseparate": 6006,
      "84": 6007,
      "Ac": 6008,
      "SOR": 6009,
      "jupyter": 6010,
      "Ġrouter": 6011,
      "leak": 6012,
      "ĠAmerican": 6013,
      "Ġconfir": 6014,
      "Ġsearch": 6015,
      "Exc": 6016,
      "ĠImageDraw": 6017,
      "based": 6018,
      "created": 6019,
      "Ġ['--": 6020,
      "Ġproperty": 6021,
      "Ġwords": 6022,
      "pectedex": 6023,
      "plet": 6024,
      "tools": 6025,
      "Ġent": 6026,
      "fiers": 6027,
      "Ġcoverage": 6028,
      "enable": 6029,
      "entities": 6030,
      "cepted": 6031,
      "Ġexcinfo": 6032,
      "pick": 6033,
      "ĠVALU": 6034,
      "longrepr": 6035,
      "Ġinitialize": 6036,
      "CbCr": 6037,
      "Mark": 6038,
      "]\\": 6039,
      "rup": 6040,
      "arator": 6041,
      "chor": 6042,
      "perature": 6043,
      "Ġxsize": 6044,
      "matching": 6045,
      "aximum": 6046,
      "excinfo": 6047,
      "fails": 6048,
      "ConsoleOptions": 6049,
      "ĠEnvironment": 6050,
      "ĠINTO": 6051,
      "\\'": 6052,
      "][\"": 6053,
      "year": 6054,
      "setitem": 6055,
      "relative": 6056,
      "Ġasserter": 6057,
      "Ġ#>": 6058,
      "nes": 6059,
      "Ġconfigured": 6060,
      "ached": 6061,
      "imports": 6062,
      "difference": 6063,
      "[[],": 6064,
      "bidi": 6065,
      "zzzzzzzz": 6066,
      "8000": 6067,
      "Attr": 6068,
      "Abstract": 6069,
      "OF": 6070,
      "OK": 6071,
      "Single": 6072,
      "Ġob": 6073,
      "Ġbest": 6074,
      "formal": 6075,
      "Ġreadable": 6076,
      "Ġcompleted": 6077,
      "CompiledSQL": 6078,
      "deploy": 6079,
      "Ġformal": 6080,
      "lipsis": 6081,
      "AMP": 6082,
      "Ġdirection": 6083,
      "ĠHTML": 6084,
      "Ġ('/": 6085,
      "Pytest": 6086,
      "Transform": 6087,
      "................": 6088,
      "'m": 6089,
      "(...": 6090,
      ":.": 6091,
      "Ġdatatype": 6092,
      "ashed": 6093,
      "Ġmutable": 6094,
      "Ġ_:": 6095,
      "Ġnice": 6096,
      "runtime": 6097,
      "Stub": 6098,
      "employees": 6099,
      "[:-": 6100,
      "Ġgrammar": 6101,
      "Ġrepresentation": 6102,
      "channel": 6103,
      "reduce": 6104,
      "ACK": 6105,
      "Entry": 6106,
      "Non": 6107,
      "synchronize": 6108,
      "onupdate": 6109,
      "rel": 6110,
      "Ġbold": 6111,
      "ĠCan": 6112,
      "Ġmeasurement": 6113,
      "Ġmatching": 6114,
      "UPDATE": 6115,
      "Ġcompatibility": 6116,
      "ENERATED": 6117,
      ")\")": 6118,
      "300": 6119,
      "EW": 6120,
      "]',": 6121,
      "`][": 6122,
      "mation": 6123,
      "Ġscreen": 6124,
      "ĠPdfParser": 6125,
      "ĠTime": 6126,
      "folder": 6127,
      "readme": 6128,
      "TestClient": 6129,
      "clip": 6130,
      "bling": 6131,
      "ĠDialect": 6132,
      "syn": 6133,
      "tbl": 6134,
      "}':": 6135,
      "orage": 6136,
      "Ġcells": 6137,
      "defer": 6138,
      "Ġslice": 6139,
      "ĠShould": 6140,
      "ĠUserWarning": 6141,
      "bindparam": 6142,
      "Ġtrigger": 6143,
      "randint": 6144,
      "Ġresolved": 6145,
      "'}]}},": 6146,
      "Ġparticular": 6147,
      ":])": 6148,
      "BG": 6149,
      "tex": 6150,
      "rick": 6151,
      "Ġdue": 6152,
      "Ġconnect": 6153,
      "nex": 6154,
      "Ġ29": 6155,
      "Ġattemp": 6156,
      "MyModel": 6157,
      "resolver": 6158,
      "aff": 6159,
      "bg": 6160,
      "ban": 6161,
      "numeric": 6162,
      "rectories": 6163,
      "Ġreturning": 6164,
      "Ġdpi": 6165,
      "Ġdetermine": 6166,
      "pretty": 6167,
      "127": 6168,
      "messages": 6169,
      "Ġmanually": 6170,
      "former": 6171,
      "WWW": 6172,
      "(-": 6173,
      "45": 6174,
      "At": 6175,
      "Bind": 6176,
      "ony": 6177,
      "inserted": 6178,
      "Ġ27": 6179,
      "Ġyet": 6180,
      "\\\\\\\\": 6181,
      "ĠSelect": 6182,
      "Ġprivate": 6183,
      "iteration": 6184,
      "Ġspans": 6185,
      "ĠAsyncSession": 6186,
      "manyvalues": 6187,
      "Timeout": 6188,
      "ĠSimpleDataObject": 6189,
      "\"--": 6190,
      "Math": 6191,
      "fri": 6192,
      "globals": 6193,
      "aten": 6194,
      "ĠIdentity": 6195,
      "ĠBe": 6196,
      "Ġcorrectly": 6197,
      "Running": 6198,
      "layout": 6199,
      "Interface": 6200,
      "related": 6201,
      "Ġcriter": 6202,
      "Ġfour": 6203,
      "Ġns": 6204,
      "Ġrunning": 6205,
      "Ġjustify": 6206,
      "DateTime": 6207,
      "lookup": 6208,
      "IG": 6209,
      "Pv": 6210,
      "Since": 6211,
      "future": 6212,
      "linter": 6213,
      "vif": 6214,
      "concrete": 6215,
      "Ġtyped": 6216,
      "Ġproducts": 6217,
      "ĠTyper": 6218,
      "maximum": 6219,
      "reports": 6220,
      "labels": 6221,
      "'}}}}},": 6222,
      "RuntimeError": 6223,
      "chedule": 6224,
      "CURSOR": 6225,
      "ĠVALUES": 6226,
      "Func": 6227,
      "entropy": 6228,
      "usted": 6229,
      "Ġproc": 6230,
      "Ġnecessary": 6231,
      "Ġleading": 6232,
      "INFO": 6233,
      "ARD": 6234,
      "Ġedges": 6235,
      "DDL": 6236,
      "Frame": 6237,
      "NUM": 6238,
      "bm": 6239,
      "hints": 6240,
      "strategy": 6241,
      "Ġevents": 6242,
      "cover": 6243,
      "structor": 6244,
      "Ġexact": 6245,
      "verify": 6246,
      "database": 6247,
      "comma": 6248,
      "ĠDO": 6249,
      "Ġ<<": 6250,
      "tasks": 6251,
      "which": 6252,
      "Ġgreenlet": 6253,
      "DeprecatedSince": 6254,
      "memoized": 6255,
      ")',": 6256,
      ".*": 6257,
      "Cms": 6258,
      "Strict": 6259,
      "Ġquotes": 6260,
      "memory": 6261,
      "Ġoauth": 6262,
      "Ġdone": 6263,
      "Ġdynamic": 6264,
      "temperature": 6265,
      "Ġ18": 6266,
      "ĠSay": 6267,
      "Ġprobably": 6268,
      "Ġnargs": 6269,
      "Ġunable": 6270,
      "Ġless": 6271,
      "Keyword": 6272,
      "ColumnElement": 6273,
      "repeated": 6274,
      "metric": 6275,
      "strumentation": 6276,
      "512": 6277,
      "Baz": 6278,
      "IS": 6279,
      "Inc": 6280,
      "Link": 6281,
      "\\.": 6282,
      "Ġelem": 6283,
      "Ġprofile": 6284,
      "ĠHas": 6285,
      "Ġcalling": 6286,
      "ĠManager": 6287,
      "secondary": 6288,
      "Ġplugins": 6289,
      "}:{": 6290,
      "Mapper": 6291,
      "\"}}": 6292,
      ")}\")": 6293,
      "Match": 6294,
      "mis": 6295,
      "segments": 6296,
      "Ġrepe": 6297,
      "Ġpush": 6298,
      "notification": 6299,
      "ulls": 6300,
      "silon": 6301,
      "Ġcoercions": 6302,
      "Decode": 6303,
      "Ġmean": 6304,
      "Ġnever": 6305,
      "trie": 6306,
      "Ġ>>": 6307,
      "against": 6308,
      "Server": 6309,
      "bullets": 6310,
      "Ġbitmap": 6311,
      "Box": 6312,
      "RootModel": 6313,
      "59": 6314,
      "OSError": 6315,
      "Task": 6316,
      "TRA": 6317,
      "TABLE": 6318,
      "caten": 6319,
      "fragment": 6320,
      "additional": 6321,
      "Ġcomb": 6322,
      "edy": 6323,
      "((((": 6324,
      "sorted": 6325,
      "compiler": 6326,
      "encoded": 6327,
      "BO": 6328,
      "Post": 6329,
      "embedded": 6330,
      "repository": 6331,
      "Ġreformatted": 6332,
      "Ġcopi": 6333,
      "persi": 6334,
      "projection": 6335,
      "times": 6336,
      "requests": 6337,
      "MetaData": 6338,
      "weights": 6339,
      "MyClass": 6340,
      "MySQL": 6341,
      "ĠGenerator": 6342,
      "ARGS": 6343,
      "Ġshape": 6344,
      "AUT": 6345,
      "detect": 6346,
      "Ġ\"\".": 6347,
      "Ġreq": 6348,
      "lying": 6349,
      "doctest": 6350,
      "Ġ80": 6351,
      "Ġallows": 6352,
      "END": 6353,
      "Ġsymbol": 6354,
      "evaluate": 6355,
      "(?:": 6356,
      "'\",": 6357,
      "((\"": 6358,
      "Cho": 6359,
      "Called": 6360,
      "lin": 6361,
      "Ġte": 6362,
      "rebuild": 6363,
      "more": 6364,
      "ĠTag": 6365,
      "umu": 6366,
      "schemastore": 6367,
      "external": 6368,
      "shutdown": 6369,
      "maining": 6370,
      "ĠDeprecationWarning": 6371,
      "Ġmaybe": 6372,
      "topIteration": 6373,
      "deleted": 6374,
      "Ġreceived": 6375,
      "ĠImportError": 6376,
      "cpu": 6377,
      "YCbCr": 6378,
      "gre": 6379,
      "ars": 6380,
      "Ġsqlite": 6381,
      "ĠPY": 6382,
      "():\\": 6383,
      "preserve": 6384,
      "compati": 6385,
      "Environment": 6386,
      "Ġchecks": 6387,
      "connections": 6388,
      "MyEnum": 6389,
      "nonce": 6390,
      "Ġengineer": 6391,
      "Visit": 6392,
      "Docstring": 6393,
      "eeeeeeeeeeeeeeeeeeeeeeeeeeeeeeee": 6394,
      "Target": 6395,
      "ĊĠĠĠĠĠĠĠĠĠĠĠĠĠ": 6396,
      "Ġthings": 6397,
      "ctype": 6398,
      "Ġ##": 6399,
      "umb": 6400,
      "quals": 6401,
      "ĠUI": 6402,
      "Ġdivi": 6403,
      "ĠImagePalette": 6404,
      "ordin": 6405,
      "aaa": 6406,
      "Ġjack": 6407,
      "multipart": 6408,
      "Ġvariant": 6409,
      "overrides": 6410,
      "Ġsimilar": 6411,
      "nexpected": 6412,
      "*',": 6413,
      "inte": 6414,
      "Ġrepo": 6415,
      "Ġsync": 6416,
      "mental": 6417,
      "Ġlatest": 6418,
      "ĠExtra": 6419,
      "Ġstatements": 6420,
      "white": 6421,
      "ĠRenderable": 6422,
      "83": 6423,
      "Back": 6424,
      "Size": 6425,
      "bottom": 6426,
      "xfail": 6427,
      "det": 6428,
      "Ġimplemented": 6429,
      "mpty": 6430,
      "isable": 6431,
      "Ġprotocol": 6432,
      "ĠOption": 6433,
      "way": 6434,
      "FromClause": 6435,
      "removed": 6436,
      "Ġassoci": 6437,
      "Ġ%}{{": 6438,
      "ĠDBAPIConnection": 6439,
      "edges": 6440,
      "Ġtzinfo": 6441,
      "pectedexpectedex": 6442,
      "LY": 6443,
      "boo": 6444,
      "standard": 6445,
      "declarative": 6446,
      "Ġinstruction": 6447,
      "Ġ'',": 6448,
      "getmode": 6449,
      "assertion": 6450,
      "ily": 6451,
      "compute": 6452,
      "company": 6453,
      "supports": 6454,
      "bitmap": 6455,
      "Ġspaces": 6456,
      "Ġinvoked": 6457,
      "((),": 6458,
      "*\\": 6459,
      "75": 6460,
      "Good": 6461,
      "bidden": 6462,
      "ins": 6463,
      "inactive": 6464,
      "Ġident": 6465,
      "macro": 6466,
      "Ġ'')": 6467,
      "Ġforward": 6468,
      "003": 6469,
      "Dead": 6470,
      "Ġproxies": 6471,
      "newline": 6472,
      "ĠEX": 6473,
      "tmpdir": 6474,
      "normalized": 6475,
      "ĠINSERT": 6476,
      "rouped": 6477,
      "Byte": 6478,
      "FORMAT": 6479,
      "ED": 6480,
      "highlighter": 6481,
      "Ġser": 6482,
      "alance": 6483,
      "anded": 6484,
      "ritable": 6485,
      "via": 6486,
      "never": 6487,
      "igher": 6488,
      "Ġtimes": 6489,
      "Ġ</": 6490,
      "foreign": 6491,
      "Ġjill": 6492,
      "Ġ60": 6493,
      "Ġstructure": 6494,
      "special": 6495,
      "DOW": 6496,
      "Ġthreading": 6497,
      "sistent": 6498,
      "transparency": 6499,
      "DF": 6500,
      "city": 6501,
      "micro": 6502,
      "major": 6503,
      "Ġsnake": 6504,
      "negative": 6505,
      "illi": 6506,
      "Ġsegments": 6507,
      "Ġnumeric": 6508,
      "Container": 6509,
      "selectin": 6510,
      "Ġdispatch": 6511,
      "Ġabc": 6512,
      "normal": 6513,
      "formatting": 6514,
      "Adapt": 6515,
      "Common": 6516,
      "Ġscopes": 6517,
      "racle": 6518,
      "Ġissubclass": 6519,
      "Ġ404": 6520,
      "'}]},": 6521,
      "ĠPoint": 6522,
      "Allowed": 6523,
      "IM": 6524,
      "NS": 6525,
      "ores": 6526,
      "ton": 6527,
      "Ġequivalent": 6528,
      "Ġwindow": 6529,
      "gettext": 6530,
      "Resol": 6531,
      "Ġstored": 6532,
      "ĠHow": 6533,
      "bert": 6534,
      "Ġprecision": 6535,
      "ories": 6536,
      "filters": 6537,
      "Ġmessages": 6538,
      "Ġsqltypes": 6539,
      "ConfigDict": 6540,
      "Ġnormally": 6541,
      "ĠParameters": 6542,
      "speed": 6543,
      "metavar": 6544,
      "Ġhooks": 6545,
      "metrics": 6546,
      "ĠTiffImagePlugin": 6547,
      ">`": 6548,
      "Open": 6549,
      "Pdf": 6550,
      "Tax": 6551,
      "bf": 6552,
      "cumu": 6553,
      "tiv": 6554,
      "ĠTemplate": 6555,
      "dio": 6556,
      "ĠSkip": 6557,
      "prog": 6558,
      "tained": 6559,
      "Ġprog": 6560,
      "Ġlut": 6561,
      "present": 6562,
      "binds": 6563,
      "Ġraising": 6564,
      "Point": 6565,
      "Ġrepresenting": 6566,
      "deletes": 6567,
      "versal": 6568,
      "best": 6569,
      "tool": 6570,
      "xml": 6571,
      "depends": 6572,
      "may": 6573,
      "ermin": 6574,
      "Ġindirect": 6575,
      "Ġ`{": 6576,
      "Ġ(:": 6577,
      "ĠAuth": 6578,
      "Ġmem": 6579,
      "igration": 6580,
      "Ġ401": 6581,
      "ĠRO": 6582,
      "behavior": 6583,
      "Ġincludes": 6584,
      "namedtuple": 6585,
      "Ġauthenticated": 6586,
      "All": 6587,
      "Port": 6588,
      "Show": 6589,
      "aging": 6590,
      "catch": 6591,
      "mal": 6592,
      "Ġ\\\\": 6593,
      "require": 6594,
      "Ġctypes": 6595,
      "Ġ'*": 6596,
      "Ġemoji": 6597,
      "liased": 6598,
      "ĠPillow": 6599,
      "percent": 6600,
      "Ġstore": 6601,
      "apple": 6602,
      "Ġpyright": 6603,
      "sock": 6604,
      "maxsize": 6605,
      "Ġknow": 6606,
      "author": 6607,
      "multiline": 6608,
      "dog": 6609,
      "Ġbindparam": 6610,
      "ĠĠĠĠĠĠĠĠĠĠĠĠĠĠĠĠĠĠĠĠĠĠĠĠĠĠĠĠĠĠĠĠĠĠĠĠĠĠĠĠĠĠĠĠĠĠĠĠĠĠĠĠĠĠĠĠĠĠĠĠĠĠĠĠĠĠĠĠĠĠĠĠĠĠĠĠĠĠĠĠ": 6611,
      "Registry": 6612,
      "ControlType": 6613,
      "/\"": 6614,
      "LINE": 6615,
      "cfg": 6616,
      "warm": 6617,
      "Ġusually": 6618,
      ").__": 6619,
      "job": 6620,
      "built": 6621,
      "Ġdisabled": 6622,
      "quality": 6623,
      "Ġimplicit": 6624,
      "aving": 6625,
      "IST": 6626,
      "stuff": 6627,
      "__\")": 6628,
      "kets": 6629,
      "ĠOAuth": 6630,
      "bye": 6631,
      "Ġsubq": 6632,
      "Ġcolormap": 6633,
      "embeddings": 6634,
      "listens": 6635,
      "Ġformats": 6636,
      "Ġprevp": 6637,
      "ĠControlType": 6638,
      "erminal": 6639,
      "Cls": 6640,
      "ModuleType": 6641,
      "OP": 6642,
      "fallback": 6643,
      "Ġput": 6644,
      "stm": 6645,
      "aries": 6646,
      "unsafe": 6647,
      "moo": 6648,
      "rived": 6649,
      "Ġ(#": 6650,
      "composite": 6651,
      "optim": 6652,
      "templates": 6653,
      "Ġgeneration": 6654,
      "Ġtrack": 6655,
      "Compiler": 6656,
      "Ġtracebacks": 6657,
      "Ġcorresponding": 6658,
      "Ab": 6659,
      "Net": 6660,
      "jinja": 6661,
      "seen": 6662,
      "third": 6663,
      "outine": 6664,
      "raisable": 6665,
      "Ġ[(\"": 6666,
      "exclusive": 6667,
      "Ġhide": 6668,
      "('_": 6669,
      "///": 6670,
      "102": 6671,
      "ĠSettings": 6672,
      "mlink": 6673,
      "ANGE": 6674,
      "timing": 6675,
      "Deferred": 6676,
      "frozenset": 6677,
      "Ġprovides": 6678,
      "FLI": 6679,
      "brac": 6680,
      "Ġatom": 6681,
      "ssue": 6682,
      "()[\"": 6683,
      "ĠFI": 6684,
      "Ġnn": 6685,
      "Ġuntil": 6686,
      "Ġ``\"": 6687,
      "runs": 6688,
      "ĠEmployee": 6689,
      "Ġtraverse": 6690,
      "DEBUG": 6691,
      "Ġpersi": 6692,
      "Ġchildren": 6693,
      "Ġremains": 6694,
      "limiter": 6695,
      "Long": 6696,
      "gi": 6697,
      "sw": 6698,
      "logs": 6699,
      "__\",": 6700,
      "Ġ((),": 6701,
      "construct": 6702,
      "Ġsen": 6703,
      "ĠNumber": 6704,
      "Digest": 6705,
      "terministic": 6706,
      "distinct": 6707,
      "digits": 6708,
      "(\"\")": 6709,
      "Highlight": 6710,
      "System": 6711,
      "[{": 6712,
      "cf": 6713,
      "ĊĊĠĠĠĠĠĠĠĠĠ": 6714,
      "Ġhelper": 6715,
      "pairs": 6716,
      "Ġdetected": 6717,
      "four": 6718,
      "clone": 6719,
      "_([": 6720,
      "Ġprepare": 6721,
      "libtiff": 6722,
      "Ġlogin": 6723,
      "CTION": 6724,
      "Ġtargets": 6725,
      "Ġregular": 6726,
      "Ġmetavar": 6727,
      "ĠDoe": 6728,
      "THON": 6729,
      "hsl": 6730,
      "CII": 6731,
      "perimental": 6732,
      "Ġnetwork": 6733,
      "Ġconfirmation": 6734,
      "Float": 6735,
      "First": 6736,
      "Yyy": 6737,
      "nargs": 6738,
      "decls": 6739,
      "pened": 6740,
      "mps": 6741,
      "()``": 6742,
      "adapt": 6743,
      "ispytest": 6744,
      "Ġsets": 6745,
      "jsonl": 6746,
      "Ġsock": 6747,
      "ĠRoot": 6748,
      "@::::::": 6749,
      "@::::@:::::::::": 6750,
      "Ġinterpre": 6751,
      "Ġ}}|": 6752,
      "ĠDEFAULT": 6753,
      "Ġdefinitions": 6754,
      ":::::@::::@::::@::::@::::": 6755,
      "ĠLeaf": 6756,
      "@::::@:::::::::@::::::": 6757,
      ":::::@::::@::::@::::@::::@::::@:::::::::@::::::": 6758,
      "69": 6759,
      "dummy": 6760,
      "Ġcrop": 6761,
      "Ġrequested": 6762,
      "Ġtbl": 6763,
      "ĠPL": 6764,
      "pow": 6765,
      "Ġtranspa": 6766,
      "minor": 6767,
      "]]`.": 6768,
      "ANT": 6769,
      "Transaction": 6770,
      "Ġassume": 6771,
      "ĠINTEGER": 6772,
      "ruits": 6773,
      "publish": 6774,
      "11111111": 6775,
      "OAuth": 6776,
      "gor": 6777,
      "xsize": 6778,
      "ysize": 6779,
      "Ġ?": 6780,
      "Ġdc": 6781,
      "Ġdouble": 6782,
      "ndo": 6783,
      "tok": 6784,
      "\"]),": 6785,
      "ĠBo": 6786,
      "UserError": 6787,
      "Ġ512": 6788,
      "sqltypes": 6789,
      "Ġoverflow": 6790,
      ">>>": 6791,
      "different": 6792,
      "ĠFormat": 6793,
      "cert": 6794,
      "Password": 6795,
      "gorith": 6796,
      "Fla": 6797,
      "PAR": 6798,
      "dr": 6799,
      "fc": 6800,
      "Ġpl": 6801,
      "Ġsaf": 6802,
      "Ġdst": 6803,
      "Ġbelow": 6804,
      "))]": 6805,
      "PIPE": 6806,
      "Ġprocessed": 6807,
      "Ġtransport": 6808,
      "Transpose": 6809,
      "ĠAssertionError": 6810,
      "Ġfails": 6811,
      "ðŁĴ": 6812,
      "Visitor": 6813,
      "Ġtile": 6814,
      "sitional": 6815,
      "oog": 6816,
      "ely": 6817,
      "Ġconsume": 6818,
      "Ġextend": 6819,
      "tach": 6820,
      "ĠReg": 6821,
      "ĠRET": 6822,
      "ARRAY": 6823,
      "firm": 6824,
      "Ġloading": 6825,
      "passive": 6826,
      "Ġevalu": 6827,
      "calarResult": 6828,
      "ĠTraceback": 6829,
      "Ġclone": 6830,
      "AV": 6831,
      "Qt": 6832,
      "You": 6833,
      "nor": 6834,
      "uman": 6835,
      "incorrect": 6836,
      "Ġbpp": 6837,
      "rive": 6838,
      "../": 6839,
      "(\"<": 6840,
      "fileno": 6841,
      "ĠCOM": 6842,
      "TypeDecorator": 6843,
      "dentical": 6844,
      "importlib": 6845,
      "Ġlogits": 6846,
      "Ġ500": 6847,
      "Ġprimaryjoin": 6848,
      "DENT": 6849,
      "heads": 6850,
      "Ġindentation": 6851,
      "cuda": 6852,
      "SSL": 6853,
      "chunks": 6854,
      "ĠCollection": 6855,
      "PAS": 6856,
      "ipy": 6857,
      "pli": 6858,
      "pdb": 6859,
      "sd": 6860,
      "since": 6861,
      "ination": 6862,
      "decompression": 6863,
      "Ġemitted": 6864,
      "ĠPR": 6865,
      "alic": 6866,
      "Ġapi": 6867,
      "Ġconfigure": 6868,
      "'}}}},": 6869,
      "Ġdebugging": 6870,
      "Ġunderlying": 6871,
      "MappedTest": 6872,
      "Ġsafely": 6873,
      "435": 6874,
      ">'": 6875,
      "IZE": 6876,
      "hndo": 6877,
      "px": 6878,
      "zont": 6879,
      "}-": 6880,
      "Ġreset": 6881,
      "Ġreformat": 6882,
      "__')": 6883,
      "Ġ---------": 6884,
      "disc": 6885,
      "Ġmajor": 6886,
      "ĠObject": 6887,
      "readable": 6888,
      "johndo": 6889,
      "STAND": 6890,
      "tempfile": 6891,
      "ĠTypeVar": 6892,
      "orizont": 6893,
      "2000": 6894,
      "Unit": 6895,
      "Ġlistener": 6896,
      "Ġoutside": 6897,
      "weight": 6898,
      "vention": 6899,
      "Ġexpressions": 6900,
      "Ġtempfile": 6901,
      "cussion": 6902,
      "123456789": 6903,
      "Ġfrozenset": 6904,
      "oooooooooooooooo": 6905,
      "Ġcert": 6906,
      "onym": 6907,
      "fribidi": 6908,
      "johndoe": 6909,
      "65": 6910,
      "Pillow": 6911,
      "Range": 6912,
      "decor": 6913,
      "Ġtre": 6914,
      "sibling": 6915,
      "Required": 6916,
      "press": 6917,
      "=\"/": 6918,
      "lowlevel": 6919,
      "Ġcoltype": 6920,
      "Ġweak": 6921,
      "Ġlint": 6922,
      "bias": 6923,
      "Ġapplies": 6924,
      "Ġimported": 6925,
      "Ġtruncated": 6926,
      "agnostics": 6927,
      "IMAGE": 6928,
      "WITH": 6929,
      "_`": 6930,
      "stat": 6931,
      "arrow": 6932,
      "Ġrec": 6933,
      "Ġhistogram": 6934,
      "entation": 6935,
      "prox": 6936,
      "Ġdist": 6937,
      "span": 6938,
      "bomb": 6939,
      "ternally": 6940,
      "Ġ.*": 6941,
      "qualname": 6942,
      "AsyncSession": 6943,
      "SIVE": 6944,
      "Ġ::::::::::@::::@::::@::::@::::@::::@:::::::::@::::::": 6945,
      "paredRequest": 6946,
      "PROJECT": 6947,
      "mut": 6948,
      "ridden": 6949,
      "ĠĠĠĠĠĠĠĠĠĠĠĠ": 6950,
      "stash": 6951,
      "leport": 6952,
      "arable": 6953,
      "roles": 6954,
      "unsupported": 6955,
      "litem": 6956,
      "Ġwon": 6957,
      "ulk": 6958,
      "ndi": 6959,
      "Ġdeferred": 6960,
      "creator": 6961,
      "Annotation": 6962,
      "ArgumentParser": 6963,
      "FontFile": 6964,
      "Reflection": 6965,
      ">,": 6966,
      "Down": 6967,
      "Unexpected": 6968,
      "Ġatt": 6969,
      "Ġ'#": 6970,
      "listener": 6971,
      "product": 6972,
      "ĠOne": 6973,
      "referred": 6974,
      "Ġtextwrap": 6975,
      "```": 6976,
      "traverse": 6977,
      "filterwarnings": 6978,
      "ĠMySQL": 6979,
      "Ġseek": 6980,
      "Ġ90": 6981,
      "dicate": 6982,
      ".::": 6983,
      "Block": 6984,
      "Hook": 6985,
      "So": 6986,
      "rst": 6987,
      "ud": 6988,
      "ĠQu": 6989,
      "alt": 6990,
      "uri": 6991,
      "Ġdummy": 6992,
      "ĠInc": 6993,
      "ĠWith": 6994,
      "4242": 6995,
      "playwright": 6996,
      "laywright": 6997,
      "PACE": 6998,
      "ĠJsonSchema": 6999,
      "ĠResult": 7000,
      "maybe": 7001,
      "67": 7002,
      "Say": 7003,
      "ster": 7004,
      "alty": 7005,
      "ueue": 7006,
      "getrgb": 7007,
      "ineT": 7008,
      "penalty": 7009,
      "Ġunless": 7010,
      "})\"": 7011,
      "Ġshown": 7012,
      "Ġpriority": 7013,
      "ROP": 7014,
      "Ġattrs": 7015,
      "Execution": 7016,
      "_.__": 7017,
      "break": 7018,
      "ified": 7019,
      "lls": 7020,
      "ansion": 7021,
      "Relationship": 7022,
      "ness": 7023,
      "quiet": 7024,
      "mappings": 7025,
      "\"][": 7026,
      "Ġbases": 7027,
      "Dataset": 7028,
      "Ġendfor": 7029,
      "Ġanyio": 7030,
      "handlers": 7031,
      "Ġoptionally": 7032,
      "ĠChange": 7033,
      "Ġtypically": 7034,
      "inherit": 7035,
      "52": 7036,
      "Boolean": 7037,
      "]['": 7038,
      "Ġcity": 7039,
      "Ġchain": 7040,
      "ĠAt": 7041,
      "velo": 7042,
      "Ġmove": 7043,
      "Ġgray": 7044,
      "Ġgets": 7045,
      "Ġaccept": 7046,
      "ĠWh": 7047,
      "ĠLayout": 7048,
      "ColumnExpression": 7049,
      "Serialization": 7050,
      "processors": 7051,
      "fullname": 7052,
      "Headers": 7053,
      "Norm": 7054,
      "cascade": 7055,
      "elem": 7056,
      "ferred": 7057,
      "ob": 7058,
      "ptimizer": 7059,
      "Ġ99": 7060,
      "onts": 7061,
      "Ġcancel": 7062,
      "Ġbasic": 7063,
      "Ġbottom": 7064,
      "getbbox": 7065,
      "getbands": 7066,
      "Regex": 7067,
      "party": 7068,
      "ĠMap": 7069,
      "subtitle": 7070,
      "Ġshouldn": 7071,
      "xxxxxx": 7072,
      "wesome": 7073,
      "Ġautoincrement": 7074,
      "infer": 7075,
      "whitespace": 7076,
      "imated": 7077,
      "Ġplaywright": 7078,
      "rupt": 7079,
      "%,": 7080,
      "BIT": 7081,
      "Identity": 7082,
      "Sup": 7083,
      "setenv": 7084,
      "Ġreversed": 7085,
      "ĠApp": 7086,
      "ĠIPv": 7087,
      "(\".\")": 7088,
      "Ġuti": 7089,
      "quare": 7090,
      "Ġdeep": 7091,
      "resume": 7092,
      "ĠCOL": 7093,
      "ddl": 7094,
      "xyz": 7095,
      "autoflush": 7096,
      "itialize": 7097,
      "ĠFileNotFoundError": 7098,
      "Ġvalidators": 7099,
      "Here": 7100,
      "86401": 7101,
      "Triplet": 7102,
      "Network": 7103,
      "04": 7104,
      "IMP": 7105,
      "OS": 7106,
      "Operation": 7107,
      "Temp": 7108,
      "YPY": 7109,
      "remaining": 7110,
      "dedent": 7111,
      "that": 7112,
      "Ġfk": 7113,
      "Ġrest": 7114,
      "math": 7115,
      "Ġbroken": 7116,
      "ĠPri": 7117,
      "Ġmade": 7118,
      "Ġstandalone": 7119,
      "ĠMulti": 7120,
      "dialects": 7121,
      "Ġexecutable": 7122,
      "Ġassignment": 7123,
      "riting": 7124,
      "ImportError": 7125,
      "ĠTranslated": 7126,
      "button": 7127,
      "@@@@@@#": 7128,
      "gorithm": 7129,
      "Edge": 7130,
      "JPEG": 7131,
      "ilation": 7132,
      "}])": 7133,
      "Ġjohn": 7134,
      "aring": 7135,
      "amel": 7136,
      "chrom": 7137,
      "Ġ\"\"\"\\": 7138,
      "Ġseq": 7139,
      "Dep": 7140,
      "Ġeng": 7141,
      "Ġannotated": 7142,
      "subcommand": 7143,
      "dirty": 7144,
      "ITY": 7145,
      "Ġmultiline": 7146,
      "wardRef": 7147,
      "Ġgradient": 7148,
      "slash": 7149,
      "Ġ(?),": 7150,
      "rotate": 7151,
      "modify": 7152,
      "DR": 7153,
      "amount": 7154,
      "yaml": 7155,
      "segment": 7156,
      "rix": 7157,
      "pager": 7158,
      "dices": 7159,
      "pyodbc": 7160,
      "omit": 7161,
      "Ġsubclasses": 7162,
      "executemany": 7163,
      "Ġregistry": 7164,
      "Traceback": 7165,
      "Ġlanguage": 7166,
      "Ġmodify": 7167,
      "Embedding": 7168,
      "Fe": 7169,
      "fuzz": 7170,
      "lstrip": 7171,
      "pts": 7172,
      "pillow": 7173,
      "ond": 7174,
      "inted": 7175,
      "lize": 7176,
      "Ġswagger": 7177,
      "ully": 7178,
      "moval": 7179,
      "advanced": 7180,
      "Ġmd": 7181,
      "istent": 7182,
      "Ġdetect": 7183,
      "Ġnone": 7184,
      "Connect": 7185,
      "words": 7186,
      "ĠLL": 7187,
      "\"}',": 7188,
      "Status": 7189,
      "ĠPydanticUserError": 7190,
      "Ġabstract": 7191,
      "cyc": 7192,
      "ĠALL": 7193,
      "Ġassociated": 7194,
      ")!": 7195,
      "dget": 7196,
      "socket": 7197,
      "oral": 7198,
      "Ġ\")]": 7199,
      "direction": 7200,
      "distribution": 7201,
      "Ġmoved": 7202,
      "props": 7203,
      "sions": 7204,
      "Ġ...]:": 7205,
      "Ġnative": 7206,
      "clare": 7207,
      "mytable": 7208,
      "marker": 7209,
      "normalization": 7210,
      "Ġrenderables": 7211,
      "567812345678": 7212,
      "Ġagain": 7213,
      "Ġlibrary": 7214,
      "installed": 7215,
      "stdin": 7216,
      "blueprint": 7217,
      "populates": 7218,
      "Ġmerged": 7219,
      "ineTuning": 7220,
      "\"/": 7221,
      "58": 7222,
      "AttributeError": 7223,
      "Full": 7224,
      "avif": 7225,
      "flower": 7226,
      "half": 7227,
      "ĊĠĠĠĠĠĠĠĠĠĠĠĠ": 7228,
      "Ġ\"âĶĤ": 7229,
      "Ġreally": 7230,
      "fish": 7231,
      "ĠPass": 7232,
      "ationError": 7233,
      "ĠImageCms": 7234,
      "ĠLine": 7235,
      "Ġlogic": 7236,
      "Ġbaseline": 7237,
      "Ġ['/": 7238,
      "ershell": 7239,
      "insertmanyvalues": 7240,
      "ĠVocabulary": 7241,
      "heading": 7242,
      "MAP": 7243,
      "CoreConfig": 7244,
      "Ġreplacement": 7245,
      "Cannot": 7246,
      "CompileTest": 7247,
      "Ġdeleted": 7248,
      "trieve": 7249,
      "Card": 7250,
      "DD": 7251,
      "DER": 7252,
      "FT": 7253,
      "YLE": 7254,
      "hard": 7255,
      "rle": 7256,
      "reverse": 7257,
      "Ġtt": 7258,
      "Ġ(`": 7259,
      "ĠPla": 7260,
      "ĠPlaywright": 7261,
      "ĠSource": 7262,
      "ĠMonkeyPatch": 7263,
      "Ġarbitrary": 7264,
      "Ġpassive": 7265,
      "STYLE": 7266,
      "ifd": 7267,
      "region": 7268,
      "Ġaliases": 7269,
      "Ġloads": 7270,
      "collections": 7271,
      "Ġspinner": 7272,
      "STANDARD": 7273,
      "Capture": 7274,
      "KEN": 7275,
      "Ġrel": 7276,
      "Ġtar": 7277,
      "Ġscoped": 7278,
      "Remove": 7279,
      "dius": 7280,
      "('.": 7281,
      "Ġresponses": 7282,
      "entries": 7283,
      "ĠStr": 7284,
      "ĠStopIteration": 7285,
      "reflection": 7286,
      "}})": 7287,
      "lifes": 7288,
      "irty": 7289,
      "herit": 7290,
      "Ġmakes": 7291,
      "Ġregistered": 7292,
      "disabled": 7293,
      "statements": 7294,
      "rective": 7295,
      "\"',": 7296,
      "/).": 7297,
      "Layout": 7298,
      "PG": 7299,
      "YS": 7300,
      "escaped": 7301,
      "Ġ]:": 7302,
      "deps": 7303,
      "Ġabs": 7304,
      "aling": 7305,
      "live": 7306,
      "getcolor": 7307,
      "enPy": 7308,
      "codepoint": 7309,
      "TypeEngine": 7310,
      "document": 7311,
      "ĠWrite": 7312,
      "sessionmaker": 7313,
      "Ġcheckparams": 7314,
      "orite": 7315,
      "closure": 7316,
      "2022": 7317,
      "wards": 7318,
      "Ġpackages": 7319,
      "atherLocation": 7320,
      "ffective": 7321,
      "$',": 7322,
      ">\")": 7323,
      "New": 7324,
      "Up": 7325,
      "_):": 7326,
      "balance": 7327,
      "hase": 7328,
      "pformat": 7329,
      "vorite": 7330,
      "inc": 7331,
      "Ġche": 7332,
      "outcome": 7333,
      "Ġelapsed": 7334,
      "getpalette": 7335,
      "ĠDDL": 7336,
      "Ġ``--": 7337,
      "builtins": 7338,
      "ayment": 7339,
      "ALL": 7340,
      "Ġupper": 7341,
      "pluginmanager": 7342,
      "disconnect": 7343,
      "formance": 7344,
      "Ġ%}{%": 7345,
      "container": 7346,
      "Web": 7347,
      ")}\"": 7348,
      ">\",": 7349,
      "Scheme": 7350,
      "TC": 7351,
      "batches": 7352,
      "ium": 7353,
      "tod": 7354,
      "xid": 7355,
      "remote": 7356,
      "Ġix": 7357,
      "Ġest": 7358,
      "kee": 7359,
      "ĠAND": 7360,
      "Ġmon": 7361,
      "quali": 7362,
      "ĠMain": 7363,
      "andid": 7364,
      "Ġgt": 7365,
      "Ġdimension": 7366,
      "='',": 7367,
      "configuration": 7368,
      "Ġnotes": 7369,
      "OME": 7370,
      "Ġabsolute": 7371,
      "venv": 7372,
      "ĠCommand": 7373,
      "abstractmethod": 7374,
      "Ġwait": 7375,
      "separate": 7376,
      "chromium": 7377,
      "08": 7378,
      "BACK": 7379,
      "Su": 7380,
      "blank": 7381,
      "ĠLE": 7382,
      "Ġ\"|": 7383,
      "Ġ\"{%": 7384,
      "uting": 7385,
      "alo": 7386,
      "mean": 7387,
      "__':": 7388,
      "Ġresol": 7389,
      "sioned": 7390,
      "ĠSo": 7391,
      "ignored": 7392,
      "Ġyaml": 7393,
      "Ġgetcolors": 7394,
      "ĠĠĠĠĠĠĠĠĠĠĠĠĠĠĠĠĠĠĠĠĠ": 7395,
      "RGBX": 7396,
      "Ġjane": 7397,
      "PathLike": 7398,
      "Ġassigned": 7399,
      "scott": 7400,
      "Join": 7401,
      "IntStr": 7402,
      "BGR": 7403,
      "Rick": 7404,
      "Wh": 7405,
      "bpp": 7406,
      "fred": 7407,
      "np": 7408,
      "rush": 7409,
      "Ġmp": 7410,
      "decoder": 7411,
      "eries": 7412,
      "Ġepoch": 7413,
      "Ġascii": 7414,
      "Ġconsider": 7415,
      "(\"\",": 7416,
      "isatty": 7417,
      "ĠMaximum": 7418,
      "ĠOk": 7419,
      "Ġdirectories": 7420,
      "accumu": 7421,
      "Ġ400": 7422,
      "Ġarea": 7423,
      "ĠRU": 7424,
      "Ġmappings": 7425,
      "authorization": 7426,
      "orphan": 7427,
      "Ġcurrently": 7428,
      "Tokenizer": 7429,
      "Ġinterface": 7430,
      "isoformat": 7431,
      "Ġlayer": 7432,
      "public": 7433,
      "Private": 7434,
      "ĠIndexError": 7435,
      "SentEvent": 7436,
      "compatible": 7437,
      "03": 7438,
      "Host": 7439,
      "Last": 7440,
      "NULL": 7441,
      "VAL": 7442,
      "ared": 7443,
      "each": 7444,
      "har": 7445,
      "lah": 7446,
      "rites": 7447,
      "pyi": 7448,
      "posed": 7449,
      "program": 7450,
      "Ġprogram": 7451,
      "refe": 7452,
      "ĠDir": 7453,
      "Ġhowever": 7454,
      "basename": 7455,
      "viewport": 7456,
      "completed": 7457,
      "charset": 7458,
      "lueprint": 7459,
      "Ġ:::::::::": 7460,
      "Ġcriteria": 7461,
      "ndirect": 7462,
      "lifespan": 7463,
      "IP": 7464,
      "equals": 7465,
      "ident": 7466,
      "plit": 7467,
      "wal": 7468,
      "widget": 7469,
      "ĠĠĠĠĠĠĠĠĠĠĠĠĠ": 7470,
      "retry": 7471,
      "Ġaround": 7472,
      "Ġcaptured": 7473,
      "Ġreferences": 7474,
      "Ġ...]]": 7475,
      "Ġcomponents": 7476,
      "loading": 7477,
      "Ġdefaultdict": 7478,
      "SEE": 7479,
      "ĠJpeg": 7480,
      "DEX": 7481,
      "DELETE": 7482,
      "Company": 7483,
      "PydanticDeprecatedSince": 7484,
      "ansient": 7485,
      "Ġcleanup": 7486,
      "plus": 7487,
      "########": 7488,
      "EM": 7489,
      "Queue": 7490,
      "Sec": 7491,
      "gnore": 7492,
      "inx": 7493,
      "Ġidenti": 7494,
      "Ġpdf": 7495,
      "unexpected": 7496,
      "ĠAll": 7497,
      "conver": 7498,
      "Ġmatri": 7499,
      "ĠSup": 7500,
      "Descriptor": 7501,
      "alive": 7502,
      "addini": 7503,
      "Ġ361": 7504,
      "Ġbounding": 7505,
      "ĠBlack": 7506,
      "tokenize": 7507,
      "abel": 7508,
      "\"}]}": 7509,
      "Ġconnections": 7510,
      "ĠGit": 7511,
      "SED": 7512,
      "area": 7513,
      "ĠMyEnum": 7514,
      "'}}}})": 7515,
      "ĠPositional": 7516,
      "Override": 7517,
      "Ġchannels": 7518,
      "powershell": 7519,
      "orizontal": 7520,
      "Ġmatrix": 7521,
      "Tr": 7522,
      "]{": 7523,
      "gif": 7524,
      "snake": 7525,
      "td": 7526,
      "Ġcascade": 7527,
      "Ġreserved": 7528,
      "Ġbrac": 7529,
      "ater": 7530,
      "('{%": 7531,
      "ĠUsage": 7532,
      "andas": 7533,
      "frombytes": 7534,
      "ĠDate": 7535,
      "Ġprece": 7536,
      "formatter": 7537,
      "Start": 7538,
      "ARK": 7539,
      "Ġoutcomes": 7540,
      "Ġwidths": 7541,
      "theses": 7542,
      "Ġtransform": 7543,
      "ĠExit": 7544,
      "ĠExec": 7545,
      "ranges": 7546,
      "bitwise": 7547,
      "populate": 7548,
      "Ġcleaned": 7549,
      "Ġcython": 7550,
      "ĠOtherwise": 7551,
      "57": 7552,
      "97": 7553,
      "CTED": 7554,
      "Drop": 7555,
      "LS": 7556,
      "Please": 7557,
      "UI": 7558,
      "ball": 7559,
      "uous": 7560,
      "xA": 7561,
      "zsh": 7562,
      "inplace": 7563,
      "sel": 7564,
      "`.\"\"\"": 7565,
      "Ġ-------": 7566,
      "Recur": 7567,
      "Ġcounts": 7568,
      "Ġmiddle": 7569,
      "ĠReplace": 7570,
      "Convert": 7571,
      "ords": 7572,
      "Ġpreserve": 7573,
      "crets": 7574,
      "ĠGENERATED": 7575,
      "ĠEdge": 7576,
      "feed": 7577,
      "ryp": 7578,
      "Ġexecutor": 7579,
      "Ġinherited": 7580,
      "789": 7581,
      "ĠConsoleOptions": 7582,
      "Ġchardet": 7583,
      "Ġchunks": 7584,
      "Ġgently": 7585,
      "Association": 7586,
      "ĠRETURNING": 7587,
      "Ġ----------": 7588,
      "Ġgrayscale": 7589,
      "ĠDirk": 7590,
      "010": 7591,
      "Many": 7592,
      "Use": 7593,
      "XY": 7594,
      "nume": 7595,
      "sCompiledSQL": 7596,
      "}).": 7597,
      "mag": 7598,
      "Ġbg": 7599,
      "ann": 7600,
      "another": 7601,
      "\",)": 7602,
      "Ġot": 7603,
      "apted": 7604,
      "ĠPlease": 7605,
      "itle": 7606,
      "italic": 7607,
      "confirm": 7608,
      "Ġmicro": 7609,
      "Ġmacro": 7610,
      "Ġ@::": 7611,
      "ModelWith": 7612,
      "Ġlater": 7613,
      "subsequent": 7614,
      "ĠTypeAlias": 7615,
      "Note": 7616,
      "actions": 7617,
      "Ġbuiltins": 7618,
      "formats": 7619,
      "bookcase": 7620,
      "Ġ::::@@@@@@#": 7621,
      "StyleType": 7622,
      "slashes": 7623,
      "screenshot": 7624,
      "ponsors": 7625,
      "aymentCard": 7626,
      "PLU": 7627,
      "Two": 7628,
      "numpy": 7629,
      "uard": 7630,
      "Ġfully": 7631,
      "Ġescaped": 7632,
      "unwrapped": 7633,
      "note": 7634,
      "nothing": 7635,
      "aster": 7636,
      "Ġexpose": 7637,
      "Ġus": 7638,
      "Ġuuid": 7639,
      "Ġparsing": 7640,
      "ĠRequired": 7641,
      "ModelA": 7642,
      "\"}},": 7643,
      "orientation": 7644,
      "ĠUnpack": 7645,
      "ĠMyClass": 7646,
      "Ġmarker": 7647,
      "pixels": 7648,
      "Stack": 7649,
      ");": 7650,
      "Are": 7651,
      "Empty": 7652,
      "IAL": 7653,
      "cdata": 7654,
      "customer": 7655,
      "tp": 7656,
      "wsgi": 7657,
      "Ġexternal": 7658,
      "Ġdescriptor": 7659,
      "ocal": 7660,
      "Ġparagraph": 7661,
      "ĠMO": 7662,
      "Ġfilesize": 7663,
      "Ġaltern": 7664,
      "transpose": 7665,
      "Ġautoload": 7666,
      "toplevel": 7667,
      "ParamType": 7668,
      "Ġokay": 7669,
      "ĠLoss": 7670,
      "Ġletter": 7671,
      "dddddddd": 7672,
      "Ġ:::@": 7673,
      "ComparableEntity": 7674,
      "Ġhandling": 7675,
      "Ġutility": 7676,
      ")')": 7677,
      "GIN": 7678,
      "Lim": 7679,
      "Using": 7680,
      "\\(\\": 7681,
      "ien": 7682,
      "mro": 7683,
      "pil": 7684,
      "¬è": 7685,
      "æ¸": 7686,
      "descriptor": 7687,
      "Ġip": 7688,
      "Ġinspection": 7689,
      "uess": 7690,
      "Ġeager": 7691,
      "ĠAN": 7692,
      "('',": 7693,
      "Ġpager": 7694,
      "Inner": 7695,
      "Ġann": 7696,
      "ĠHe": 7697,
      "Ġtablename": 7698,
      "RGBa": 7699,
      "Array": 7700,
      "RET": 7701,
      "Ġfactor": 7702,
      "ĠJSONResponse": 7703,
      "COMMENT": 7704,
      "uplicates": 7705,
      "Ġplaceholder": 7706,
      "limited": 7707,
      "iterations": 7708,
      "Ġcopied": 7709,
      "illiseconds": 7710,
      ".,": 7711,
      "87": 7712,
      "Missing": 7713,
      "OST": 7714,
      "PdfParser": 7715,
      "sty": 7716,
      "Ġforeign": 7717,
      "Ġtutorial": 7718,
      "Ġ-%": 7719,
      "Ġcolo": 7720,
      "perate": 7721,
      "preloaded": 7722,
      "month": 7723,
      "instances": 7724,
      "Username": 7725,
      "Ġvalidated": 7726,
      "headless": 7727,
      "stence": 7728,
      "Ġsym": 7729,
      "/')`.": 7730,
      "Ġstdin": 7731,
      "Ġbooks": 7732,
      "Ġpublic": 7733,
      "ĠHowever": 7734,
      "Ġatomic": 7735,
      "Flag": 7736,
      "BY": 7737,
      "Kind": 7738,
      "Tag": 7739,
      "bly": 7740,
      "greater": 7741,
      "rtype": 7742,
      "tire": 7743,
      "leaves": 7744,
      "Ġreverse": 7745,
      "',)": 7746,
      "ilson": 7747,
      "Ġsecurity": 7748,
      "Ġ201": 7749,
      "ModelField": 7750,
      "icate": 7751,
      "ĠBad": 7752,
      "Ġtimezone": 7753,
      "(\"/\",": 7754,
      "Ġjsonable": 7755,
      "Ġtraining": 7756,
      "COMMIT": 7757,
      "'''": 7758,
      "typeddict": 7759,
      "ĠStash": 7760,
      "CacheKey": 7761,
      "imaging": 7762,
      "Ġthough": 7763,
      "Build": 7764,
      "graphy": 7765,
      "greSQL": 7766,
      "moothing": 7767,
      "\"^": 7768,
      "/?": 7769,
      "XGI": 7770,
      "aN": 7771,
      "dst": 7772,
      "lint": 7773,
      "ĊĊĠ": 7774,
      "Ġfil": 7775,
      "Ġsample": 7776,
      "five": 7777,
      "ĠIF": 7778,
      "\")\\": 7779,
      "Record": 7780,
      "Ġ_():": 7781,
      "proxies": 7782,
      "ttle": 7783,
      "Ġmembers": 7784,
      ").\"\"\"": 7785,
      "ĠRule": 7786,
      "trailer": 7787,
      "ĠMessage": 7788,
      "Force": 7789,
      "sequences": 7790,
      "FAState": 7791,
      "outerjoin": 7792,
      "recursion": 7793,
      "justify": 7794,
      "Ġstarted": 7795,
      "Ġdidn": 7796,
      "Ġchecked": 7797,
      "SEEK": 7798,
      "Used": 7799,
      "WS": 7800,
      "]\")": 7801,
      "kinter": 7802,
      "nulls": 7803,
      "©¦": 7804,
      "getLogger": 7805,
      "ĠTEST": 7806,
      "Ġ...],": 7807,
      "letters": 7808,
      "}\"])": 7809,
      "Ġstyles": 7810,
      "tracebacks": 7811,
      "Ġtemporary": 7812,
      "ĠColorTriplet": 7813,
      "FOO": 7814,
      "CASE": 7815,
      "Ġspam": 7816,
      "routes": 7817,
      "Factory": 7818,
      "Ġstdlib": 7819,
      "middleware": 7820,
      "ĠMapper": 7821,
      "today": 7822,
      "¬è©¦": 7823,
      "æ¸¬è©¦": 7824,
      "+)\\": 7825,
      "->": 7826,
      "68": 7827,
      "Look": 7828,
      "goog": 7829,
      "window": 7830,
      "zable": 7831,
      "invalidate": 7832,
      "orange": 7833,
      "ulse": 7834,
      "itch": 7835,
      "Ġ[{": 7836,
      "Ġmysql": 7837,
      "parsed": 7838,
      "immutable": 7839,
      "colon": 7840,
      "licable": 7841,
      "ImageMath": 7842,
      "Ġapplicable": 7843,
      "ĠInner": 7844,
      "ĠInstance": 7845,
      "Ġlive": 7846,
      "Ġtrace": 7847,
      "ĠNoReturn": 7848,
      "Ġrendering": 7849,
      "Ġemployee": 7850,
      "](../": 7851,
      "securityScheme": 7852,
      "'}}}}}}})": 7853,
      "securitySchemes": 7854,
      "62": 7855,
      "Callback": 7856,
      "FOR": 7857,
      "Page": 7858,
      "final": 7859,
      "identi": 7860,
      "}#": 7861,
      "}))": 7862,
      "des": 7863,
      "thirty": 7864,
      "Ġ\"],": 7865,
      "Ġcatch": 7866,
      "urrent": 7867,
      "\"\".": 7868,
      "ĠInt": 7869,
      "Ġexplanation": 7870,
      "tography": 7871,
      "ĠFrom": 7872,
      "ĠUploadFile": 7873,
      "home": 7874,
      "Ġims": 7875,
      "BaseSettings": 7876,
      "ĠWilson": 7877,
      "spli": 7878,
      "Ġpoly": 7879,
      "ordering": 7880,
      ")]`.": 7881,
      "strained": 7882,
      "Stats": 7883,
      "Ġanything": 7884,
      "layers": 7885,
      "Ġ%}\\": 7886,
      "Ġkeywords": 7887,
      "PoolEntry": 7888,
      "Processor": 7889,
      "guides": 7890,
      "ryptography": 7891,
      "Spec": 7892,
      "cd": 7893,
      "cancel": 7894,
      "dml": 7895,
      "fonts": 7896,
      "}/{": 7897,
      "Ġssl": 7898,
      "rev": 7899,
      "Ġopened": 7900,
      "Ġsleep": 7901,
      "Ġmssql": 7902,
      "andbox": 7903,
      "collected": 7904,
      "trim": 7905,
      "ĠNorm": 7906,
      "corded": 7907,
      "prefixes": 7908,
      "Ġbuilt": 7909,
      "Ġ```\\": 7910,
      "Ġblocks": 7911,
      "ĠStream": 7912,
      "AMPLE": 7913,
      "ĠRenderableType": 7914,
      "!')": 7915,
      "BER": 7916,
      "Sample": 7917,
      "Try": 7918,
      "[(": 7919,
      "ade": 7920,
      "circular": 7921,
      "gzip": 7922,
      "ole": 7923,
      "rv": 7924,
      "Ġinits": 7925,
      "Ġdown": 7926,
      "ĠPadding": 7927,
      "Ġhour": 7928,
      "Ġdeclarative": 7929,
      "ector": 7930,
      "Ġord": 7931,
      "compress": 7932,
      "TestClass": 7933,
      "Ġ@@@": 7934,
      "normalizer": 7935,
      "assign": 7936,
      "ractive": 7937,
      "Ġsaved": 7938,
      "spector": 7939,
      "Ġindicate": 7940,
      "flattened": 7941,
      "âĶĢâĶĢâĶĢâĶĢâĶĢâĶĢâĶĢâĶĢâĶĢâĶĢâĶĢâĶĢâĶĢâĶĢâĶĢâĶĢâĶĢâĶĢâĶĢâĶĢâĶĢâĶĢâĶĢâĶĢâĶĢâĶĢâĶĢâĶĢâĶĢâĶĢâĶĢâĶĢâĶĢâĶĢâĶĢâĶĢâĶĢâĶĢâĶĢâĶĢ": 7942,
      "ĠAbstractSet": 7943,
      "ipynb": 7944,
      "Ġ::::::::::::": 7945,
      "Ġ:::@:::": 7946,
      "033": 7947,
      "CC": 7948,
      "End": 7949,
      "Email": 7950,
      "HS": 7951,
      "La": 7952,
      "MIN": 7953,
      "aw": 7954,
      "eights": 7955,
      "Ġ._": 7956,
      "ĮâĶĢâĶĢâĶĢâĶ": 7957,
      "ĶâĶĢâĶĢâĶĢâĶ": 7958,
      "Ġbdata": 7959,
      "six": 7960,
      "(\"*": 7961,
      "Reference": 7962,
      "ĠFake": 7963,
      "ĠMs": 7964,
      "Ġ}}')": 7965,
      "Ġfilepath": 7966,
      "ĠTyped": 7967,
      "ttributes": 7968,
      "Measurement": 7969,
      "Division": 7970,
      "ĠConfigError": 7971,
      "Ġlevels": 7972,
      "regexp": 7973,
      "Ġissues": 7974,
      "Ġpopulate": 7975,
      "Ġhappens": 7976,
      "\"[": 7977,
      "'<": 7978,
      "Bit": 7979,
      "See": 7980,
      "Writer": 7981,
      "cargo": 7982,
      "lru": 7983,
      "poo": 7984,
      "vv": 7985,
      "deprecation": 7986,
      "Ġtur": 7987,
      "Ġtax": 7988,
      "rase": 7989,
      "Ġconflict": 7990,
      "Ġdec": 7991,
      "tached": 7992,
      "Ġpropagate": 7993,
      "setmode": 7994,
      "ĠĠĠĠĠĠĠĠĠĠĠĠĠĠĠĠĠĠ": 7995,
      "Ġweb": 7996,
      "FileText": 7997,
      "ngImagePlugin": 7998,
      "KeyError": 7999,
      ")]),": 8000,
      "={**": 8001,
      "eroDivision": 8002,
      "Ġevaluate": 8003,
      "Ġwhole": 8004,
      "Ġroundtrip": 8005,
      "Ġbetter": 8006,
      "MOVE": 8007,
      "UBLE": 8008,
      "resolution": 8009,
      "VARCHAR": 8010,
      "eroDivisionError": 8011,
      "orjson": 8012,
      "outfile": 8013,
      "ullet": 8014,
      "Ġisolation": 8015,
      "ĠAss": 8016,
      "vider": 8017,
      "pendency": 8018,
      "codec": 8019,
      "answer": 8020,
      "iry": 8021,
      "Help": 8022,
      "ClassName": 8023,
      "Ġdiscussion": 8024,
      "={})": 8025,
      "403": 8026,
      "Ġcreating": 8027,
      "Assert": 8028,
      "ssibly": 8029,
      "Ġrecords": 8030,
      "WORDS": 8031,
      "licenses": 8032,
      "Ġseparator": 8033,
      "ĠVersion": 8034,
      "07": 8035,
      "NOT": 8036,
      "ĊĊ": 8037,
      "req": 8038,
      "rest": 8039,
      "tially": 8040,
      "cells": 8041,
      "lot": 8042,
      "fies": 8043,
      "Ġ(_": 8044,
      "Ġsegment": 8045,
      "PILE": 8046,
      "Ġgc": 8047,
      "Ġnothing": 8048,
      "ĠThere": 8049,
      "TES": 8050,
      "TEXT": 8051,
      "Ġlexer": 8052,
      "dirname": 8053,
      "ĠRuff": 8054,
      "Ġunittest": 8055,
      "sources": 8056,
      "PTY": 8057,
      "antize": 8058,
      "ĠMode": 8059,
      "fspath": 8060,
      "DOWN": 8061,
      "Align": 8062,
      "LAB": 8063,
      "Morty": 8064,
      "Ori": 8065,
      "blob": 8066,
      "cket": 8067,
      "implement": 8068,
      "pull": 8069,
      "Ġfu": 8070,
      "Ġfun": 8071,
      "urther": 8072,
      "lis": 8073,
      "lities": 8074,
      "rays": 8075,
      "nough": 8076,
      "__'": 8077,
      "itable": 8078,
      "asing": 8079,
      "Ġconstructor": 8080,
      "Ġstuff": 8081,
      "processed": 8082,
      "products": 8083,
      "tents": 8084,
      "Ġpretty": 8085,
      "Product": 8086,
      "streaming": 8087,
      "startup": 8088,
      "Ġoverload": 8089,
      "goto": 8090,
      "hostname": 8091,
      "ATION": 8092,
      "dispose": 8093,
      "COMPILE": 8094,
      "Ġformally": 8095,
      "TERN": 8096,
      "ĠORDER": 8097,
      "Ġdecorators": 8098,
      "ĠIDs": 8099,
      "imation": 8100,
      "Place": 8101,
      "reporter": 8102,
      "StateChangeState": 8103,
      "clipboard": 8104,
      "ĮâĶĢâĶĢâĶĢâĶĲ": 8105,
      "ĶâĶĢâĶĢâĶĢâĶĺ": 8106,
      "'*": 8107,
      "UTER": 8108,
      "hand": 8109,
      "schedule": 8110,
      "allen": 8111,
      "outside": 8112,
      "prev": 8113,
      "prepared": 8114,
      "=\"{": 8115,
      "Ġnl": 8116,
      "Ġanchor": 8117,
      "duces": 8118,
      "Ġcheckfirst": 8119,
      "ĠDocs": 8120,
      "makeconftest": 8121,
      "aria": 8122,
      "fetchone": 8123,
      "Ġframes": 8124,
      "affinity": 8125,
      "%%": 8126,
      "';": 8127,
      "Fake": 8128,
      "LATE": 8129,
      "ScalarResult": 8130,
      "Win": 8131,
      "gg": 8132,
      "migration": 8133,
      "insensitive": 8134,
      "lex": 8135,
      "med": 8136,
      "Ġfree": 8137,
      "Ġindiv": 8138,
      "Ġear": 8139,
      "continue": 8140,
      "Ġconcaten": 8141,
      "except": 8142,
      "Ġmar": 8143,
      "ackage": 8144,
      "ffset": 8145,
      "Ġentire": 8146,
      "Ġ33": 8147,
      "Ġacross": 8148,
      "ĠThese": 8149,
      "ImageDraw": 8150,
      "Ġcollected": 8151,
      "Ġcodec": 8152,
      "Ġ\"-\"": 8153,
      "CODE": 8154,
      "Ġhandled": 8155,
      "ĠDataset": 8156,
      "Credentials": 8157,
      "Ġindicates": 8158,
      "TiffImageFile": 8159,
      "Ġcaller": 8160,
      "accumulation": 8161,
      "43": 8162,
      "CATED": 8163,
      "LAS": 8164,
      "Nested": 8165,
      "finite": 8166,
      "Ġcross": 8167,
      "Ġeasi": 8168,
      "unless": 8169,
      "Ġste": 8170,
      "turing": 8171,
      "ĠIS": 8172,
      "Ġmixed": 8173,
      "Ġupon": 8174,
      "touch": 8175,
      "Ġtypevars": 8176,
      "ĠMissing": 8177,
      "Ġgithub": 8178,
      "compat": 8179,
      "Construct": 8180,
      "Ġ37": 8181,
      "subst": 8182,
      "STORE": 8183,
      "Ġsuites": 8184,
      "Ġ\\[": 8185,
      "Ġnodeid": 8186,
      "Ġadapt": 8187,
      "Ġoptim": 8188,
      "JSONResponse": 8189,
      "Ġintegers": 8190,
      "PYTHON": 8191,
      "Ġfailure": 8192,
      "scores": 8193,
      "Ġgradio": 8194,
      "Ġvars": 8195,
      "ĠEnable": 8196,
      "'}]}}},": 8197,
      "Apply": 8198,
      "ĠCONFLI": 8199,
      "ĠCONFLICT": 8200,
      ")ï¼Į": 8201,
      "116": 8202,
      "49": 8203,
      "?\"": 8204,
      "DT": 8205,
      "Make": 8206,
      "Router": 8207,
      "bet": 8208,
      "dunder": 8209,
      "smoothing": 8210,
      "zlib": 8211,
      "still": 8212,
      "stashed": 8213,
      "leg": 8214,
      "Ġremote": 8215,
      "ana": 8216,
      "animated": 8217,
      "ĠAR": 8218,
      "ilder": 8219,
      "Ġpayload": 8220,
      "ĠMS": 8221,
      "comparator": 8222,
      "matrix": 8223,
      "ixmap": 8224,
      "ĠBack": 8225,
      "Files": 8226,
      "Ġmaxsize": 8227,
      "RED": 8228,
      "Ġfixturedef": 8229,
      "ResponseMessage": 8230,
      "Ġordering": 8231,
      "imetype": 8232,
      "Ġgoes": 8233,
      "partment": 8234,
      "Ġclamp": 8235,
      "Dog": 8236,
      "ExecuteOptions": 8237,
      "ĠArguments": 8238,
      "Ġextrema": 8239,
      "freeze": 8240,
      "hours": 8241,
      "Ġweakref": 8242,
      "ĠLossError": 8243,
      "\"``": 8244,
      "Bytes": 8245,
      "BitString": 8246,
      "GS": 8247,
      "Save": 8248,
      "dont": 8249,
      "hance": 8250,
      "ique": 8251,
      "rre": 8252,
      "Ġti": 8253,
      "Ġrepository": 8254,
      "Ġtab": 8255,
      "Ġown": 8256,
      "raft": 8257,
      "()\\": 8258,
      "`.\\": 8259,
      "sired": 8260,
      "ummary": 8261,
      "Ġmut": 8262,
      "ĠFirst": 8263,
      "Conver": 8264,
      "ĠHel": 8265,
      "Ġappe": 8266,
      "dence": 8267,
      "UserIn": 8268,
      "']),": 8269,
      "Ġlt": 8270,
      "bearer": 8271,
      "Unicode": 8272,
      "Ġ68": 8273,
      "authors": 8274,
      "achable": 8275,
      "blur": 8276,
      "scoping": 8277,
      "Training": 8278,
      "responds": 8279,
      "Ġtrainable": 8280,
      "Ġexpire": 8281,
      "allenge": 8282,
      "Ap": 8283,
      "ered": 8284,
      "lexer": 8285,
      "Ġaaaaaaaaaaaaaaaaa": 8286,
      "Ġinvocation": 8287,
      "Ġomitted": 8288,
      "ellipsis": 8289,
      "Ġexperimental": 8290,
      "Ġdevelo": 8291,
      "forbidden": 8292,
      "ĠMutable": 8293,
      "ĠOUTER": 8294,
      "Ġfileno": 8295,
      "ops": 8296,
      "ĠBinary": 8297,
      "subq": 8298,
      "irth": 8299,
      "README": 8300,
      "csv": 8301,
      "ITS": 8302,
      "there": 8303,
      "sampling": 8304,
      "Ġpatterns": 8305,
      "Ġlabels": 8306,
      "POSTCOMPILE": 8307,
      "ĠExitCode": 8308,
      "`)": 8309,
      "cure": 8310,
      "Ġ~": 8311,
      "stor": 8312,
      "standalone": 8313,
      "Ġpg": 8314,
      "lat": 8315,
      "Ġ`@": 8316,
      "Ġwrong": 8317,
      "ĠCall": 8318,
      "ĠRemove": 8319,
      "Ġ%}')": 8320,
      "ITION": 8321,
      "ATCH": 8322,
      "Ġthreads": 8323,
      "ĠREADME": 8324,
      "ĠRender": 8325,
      "parens": 8326,
      "2017": 8327,
      "iiiiiiii": 8328,
      "Attention": 8329,
      "Ġexactly": 8330,
      "TRACE": 8331,
      "Ġdivided": 8332,
      "Ġ}}|{{": 8333,
      "ĠJsonSchemaValue": 8334,
      "ariaDB": 8335,
      ")``": 8336,
      "Another": 8337,
      "Black": 8338,
      "DROP": 8339,
      "Split": 8340,
      "cx": 8341,
      "gc": 8342,
      "qt": 8343,
      "teleport": 8344,
      "reloaded": 8345,
      "thandler": 8346,
      "Ġfallback": 8347,
      "Ġpanel": 8348,
      "Ġinternally": 8349,
      "testcase": 8350,
      "()['": 8351,
      "ulthandler": 8352,
      "Ġduplicate": 8353,
      "ĠPaymentCard": 8354,
      "configs": 8355,
      "Ġ[_": 8356,
      "provide": 8357,
      "Inherit": 8358,
      "}}}}": 8359,
      "ĠHero": 8360,
      "Ġaccepted": 8361,
      "1024": 8362,
      "shop": 8363,
      "Ġsources": 8364,
      "ternals": 8365,
      "Star": 8366,
      "ĠProject": 8367,
      "Ġfactory": 8368,
      "Ġcreates": 8369,
      "Ġ1080": 8370,
      "reeType": 8371,
      "errno": 8372,
      "workers": 8373,
      "sales": 8374,
      "ĠGenerate": 8375,
      "LOCK": 8376,
      "AssertionError": 8377,
      "freetype": 8378,
      "Ġ191": 8379,
      "VALID": 8380,
      "Ġsteps": 8381,
      "CS": 8382,
      "ISS": 8383,
      "cwidth": 8384,
      "category": 8385,
      "nn": 8386,
      "adow": 8387,
      "visible": 8388,
      "ĠTI": 8389,
      "Ġdib": 8390,
      "Invoice": 8391,
      "ĠNew": 8392,
      "coroutine": 8393,
      "]]]": 8394,
      "Ġjpeg": 8395,
      "Ġprojects": 8396,
      "Grab": 8397,
      "tracker": 8398,
      "=:": 8399,
      "Rai": 8400,
      "dash": 8401,
      "Ġpandas": 8402,
      "lab": 8403,
      "Ġ{(": 8404,
      "Ġsyn": 8405,
      "()])": 8406,
      "Ġbehalf": 8407,
      "Ġ[[": 8408,
      "ModelB": 8409,
      "Ġprevent": 8410,
      "APIKey": 8411,
      "Ġschemas": 8412,
      "Ġfoobar": 8413,
      "Prompt": 8414,
      "Ġhttpcore": 8415,
      "Ġperform": 8416,
      "PECTED": 8417,
      "ĠPydanticUndefined": 8418,
      "Ġassociation": 8419,
      "cython": 8420,
      "ProcessError": 8421,
      "ExecuteParams": 8422,
      "WAYS": 8423,
      "DRational": 8424,
      "(:": 8425,
      "*(\\": 8426,
      "MARK": 8427,
      "dl": 8428,
      "dit": 8429,
      "rem": 8430,
      "ordered": 8431,
      "Ġfunctools": 8432,
      "\",',": 8433,
      "()\"": 8434,
      "Ġdx": 8435,
      "(\"{": 8436,
      "References": 8437,
      "Ġcoerce": 8438,
      "explanation": 8439,
      "Ġfunctional": 8440,
      "pygments": 8441,
      "('<": 8442,
      "Ġ28": 8443,
      "filepath": 8444,
      "faces": 8445,
      "ĠRepr": 8446,
      "ĠRelationship": 8447,
      "factories": 8448,
      "Ġxxx": 8449,
      "ĠLook": 8450,
      "processing": 8451,
      "\\\\\\": 8452,
      "Ġ[]}],": 8453,
      "filing": 8454,
      "pecial": 8455,
      "endian": 8456,
      "dotenv": 8457,
      "Ġ75": 8458,
      "FieldInfo": 8459,
      "intersection": 8460,
      "sycopg": 8461,
      "Ġhandles": 8462,
      "Polymorphic": 8463,
      "Ġ{%-": 8464,
      "Properties": 8465,
      "Ã©il": 8466,
      "everything": 8467,
      "Ġentries": 8468,
      "HighlightFunc": 8469,
      "EMPTY": 8470,
      "ĠPositionalEncoding": 8471,
      "ĠARRAY": 8472,
      "53": 8473,
      "Pub": 8474,
      "Where": 8475,
      "XX": 8476,
      "bn": 8477,
      "ulate": 8478,
      "}.{": 8479,
      "ãģ": 8480,
      "inimum": 8481,
      "Ġfurther": 8482,
      "Ġinserted": 8483,
      "lices": 8484,
      "ĠIM": 8485,
      "Ġconside": 8486,
      "Ġsep": 8487,
      "]).": 8488,
      "ĠCache": 8489,
      "issubclass": 8490,
      "icor": 8491,
      "rectangle": 8492,
      "httpcore": 8493,
      "ĠUsers": 8494,
      "ORY": 8495,
      "Ġlisten": 8496,
      "rank": 8497,
      "utiÃ©": 8498,
      "PaletteFile": 8499,
      "Ġprinted": 8500,
      "ĠLOAD": 8501,
      "inyin": 8502,
      "Constant": 8503,
      "841": 8504,
      "PASSIVE": 8505,
      "Limit": 8506,
      "rrez": 8507,
      "TRACEBACK": 8508,
      "utiÃ©rrez": 8509,
      ")(": 8510,
      "63": 8511,
      "?\\": 8512,
      "Blueprint": 8513,
      "fun": 8514,
      "jec": 8515,
      "kze": 8516,
      "}(": 8517,
      "Ġidentical": 8518,
      "Ġbi": 8519,
      "Ġep": 8520,
      "yper": 8521,
      "()._": 8522,
      "Ġdig": 8523,
      "sively": 8524,
      "')\\": 8525,
      "')})": 8526,
      "perf": 8527,
      "Init": 8528,
      "dented": 8529,
      "buzz": 8530,
      "Ġmatched": 8531,
      "styled": 8532,
      "Stat": 8533,
      "ĠEOF": 8534,
      "Partial": 8535,
      "epsilon": 8536,
      "authentic": 8537,
      "Ġ{}),": 8538,
      "Ġautocompletion": 8539,
      "tracebackhide": 8540,
      "symlink": 8541,
      "Executable": 8542,
      "Ġtools": 8543,
      "greenlet": 8544,
      "Ġextensions": 8545,
      "Lib": 8546,
      "ĠAdditional": 8547,
      "Skipping": 8548,
      "ĠCorresponds": 8549,
      "Ġbands": 8550,
      "tivation": 8551,
      "magazine": 8552,
      "jected": 8553,
      "kzeug": 8554,
      ">{": 8555,
      ">',": 8556,
      "CY": 8557,
      "Fin": 8558,
      "Plumbus": 8559,
      "cce": 8560,
      "ĠRGBA": 8561,
      "reject": 8562,
      "Ġcfg": 8563,
      "putpalette": 8564,
      "ĠAfter": 8565,
      "Copy": 8566,
      "ustered": 8567,
      "ĠMake": 8568,
      "ONLY": 8569,
      "ift": 8570,
      "Ġsuite": 8571,
      "xxxxxxx": 8572,
      "Ġseems": 8573,
      "TupleAny": 8574,
      "Ġreplaced": 8575,
      "Ġclauses": 8576,
      "Ġcaplog": 8577,
      "BadParameter": 8578,
      "cleanup": 8579,
      "ĠTiffTags": 8580,
      "ĠPostgreSQL": 8581,
      "externalReferences": 8582,
      "LongClassName": 8583,
      "(%": 8584,
      "HT": 8585,
      "Issue": 8586,
      "PUT": 8587,
      "WAR": 8588,
      "functools": 8589,
      "glyph": 8590,
      "morty": 8591,
      "pbm": 8592,
      "yo": 8593,
      "Ġpet": 8594,
      "indirect": 8595,
      "rewrite": 8596,
      "orrect": 8597,
      "Ġconnector": 8598,
      "needy": 8599,
      "protocol": 8600,
      "Ġintro": 8601,
      "ĠCurrent": 8602,
      "Ġtrust": 8603,
      "LEASE": 8604,
      "ĠInitialize": 8605,
      "absolute": 8606,
      "ĠConnect": 8607,
      "tract": 8608,
      "Unable": 8609,
      "AsyncResult": 8610,
      "Comment": 8611,
      "stepwise": 8612,
      "samples": 8613,
      "86400": 8614,
      "mismatch": 8615,
      "ordinates": 8616,
      "Portal": 8617,
      "DENTITY": 8618,
      "ĠLLM": 8619,
      "stylize": 8620,
      "ĠInstanceState": 8621,
      "Hub": 8622,
      "Pattern": 8623,
      "Title": 8624,
      "bdata": 8625,
      "done": 8626,
      "gration": 8627,
      "mble": 8628,
      "zzer": 8629,
      "semble": 8630,
      "reserved": 8631,
      "thre": 8632,
      "mer": 8633,
      "Ġwarm": 8634,
      "Ġsile": 8635,
      "()'": 8636,
      "structed": 8637,
      "Ġ(-": 8638,
      "Ġ-----------------": 8639,
      "payload": 8640,
      "ĠTree": 8641,
      "connector": 8642,
      "Ġhigh": 8643,
      "textwrap": 8644,
      "Ġpairs": 8645,
      "Ġxxxxxxxxx": 8646,
      "currency": 8647,
      "ĠBu": 8648,
      "TEMP": 8649,
      "Ġlenient": 8650,
      "START": 8651,
      "Ġsubquery": 8652,
      "('/',": 8653,
      "ĠSend": 8654,
      "ratios": 8655,
      "ptc": 8656,
      "Ġplanes": 8657,
      "Ġ70": 8658,
      "pks": 8659,
      "Ġexpanded": 8660,
      "simplefilter": 8661,
      "CustomError": 8662,
      "Verify": 8663,
      "ĠâĶĮâĶĢâĶĢâĶĢâĶĲ": 8664,
      "ĠâĶĶâĶĢâĶĢâĶĢâĶĺ": 8665,
      "deepcopy": 8666,
      "Ġfiltered": 8667,
      "199": 8668,
      "72": 8669,
      "Mutable": 8670,
      "UploadFile": 8671,
      "Very": 8672,
      "When": 8673,
      "aiter": 8674,
      "king": 8675,
      "xmp": 8676,
      "reachable": 8677,
      "Ġ\":": 8678,
      "Ġcm": 8679,
      "sition": 8680,
      "notate": 8681,
      "Ġhdr": 8682,
      "')\"": 8683,
      "usal": 8684,
      "Ġoracle": 8685,
      "Ġmetri": 8686,
      "Ġnegative": 8687,
      "ĠNested": 8688,
      "subclasses": 8689,
      "builtin": 8690,
      "Ġsubsequent": 8691,
      "argparse": 8692,
      "fixturedef": 8693,
      "ORT": 8694,
      "ĠAsyncIterable": 8695,
      "221": 8696,
      "Docstrings": 8697,
      "finished": 8698,
      "Ġtrainer": 8699,
      "OneOf": 8700,
      "Ġcompatible": 8701,
      "ĠAllow": 8702,
      "Ġattempt": 8703,
      "TCCA": 8704,
      "*\"])": 8705,
      "fas": 8706,
      "jill": 8707,
      "milliseconds": 8708,
      "mÃ©il": 8709,
      "âľ": 8710,
      "arily": 8711,
      "Ġflow": 8712,
      "Ġfruit": 8713,
      "ĊĠĠĠĠĠĠĠĠĠĠĠĠĠĠĠĠĠĠĠĠ": 8714,
      "antity": 8715,
      "()]`.": 8716,
      "ĠPngImagePlugin": 8717,
      "ĠAlign": 8718,
      "Redirect": 8719,
      "Receive": 8720,
      "Ġhy": 8721,
      "008": 8722,
      "Decompression": 8723,
      "ields": 8724,
      "Media": 8725,
      "ĠExceptionGroup": 8726,
      "ĠComparable": 8727,
      "ClauseElement": 8728,
      "ĠIsOneOf": 8729,
      "PARE": 8730,
      "Interrupt": 8731,
      "Ġindicating": 8732,
      "LevelIndex": 8733,
      "ĠTraining": 8734,
      "boardInterrupt": 8735,
      "Ġoccurred": 8736,
      "epochs": 8737,
      "PdfName": 8738,
      "ĠFIX": 8739,
      "\"`": 8740,
      ")}')": 8741,
      "=(\"": 8742,
      "Bundle": 8743,
      "Span": 8744,
      "TR": 8745,
      "There": 8746,
      "css": 8747,
      "finity": 8748,
      "uow": 8749,
      "Ġable": 8750,
      "maging": 8751,
      "mazing": 8752,
      "Ġbulk": 8753,
      "Ġwritable": 8754,
      "Ġhard": 8755,
      "ĠFraction": 8756,
      "Dependency": 8757,
      "Ġpyodbc": 8758,
      "Ġ}}\")": 8759,
      "comb": 8760,
      "configured": 8761,
      "Ġ``__": 8762,
      "dag": 8763,
      "Ġmodes": 8764,
      "strain": 8765,
      "CHANGE": 8766,
      "DICT": 8767,
      "cycle": 8768,
      "outerr": 8769,
      "Ġcrates": 8770,
      "Ġoccurs": 8771,
      "Operators": 8772,
      "follow": 8773,
      "decorated": 8774,
      "inheritance": 8775,
      "Ġindividual": 8776,
      "ĠBackground": 8777,
      ")`": 8778,
      "ADirectory": 8779,
      "Customer": 8780,
      "DML": 8781,
      "HAS": 8782,
      "dow": 8783,
      "lbert": 8784,
      "mid": 8785,
      "uation": 8786,
      "lexi": 8787,
      "Ġ\".\"": 8788,
      "arDown": 8789,
      "Ġbl": 8790,
      "Ġ'{\"": 8791,
      "getprojection": 8792,
      "ĠIndirect": 8793,
      "ders": 8794,
      "dilbert": 8795,
      "Ġdesc": 8796,
      "ĠSwagger": 8797,
      "Ġelts": 8798,
      "Ġglyph": 8799,
      "Ġgtok": 8800,
      "Ġdivide": 8801,
      "Ġ@@@@@@@": 8802,
      "clusions": 8803,
      "contentMedia": 8804,
      "Ġunexpected": 8805,
      "ĠHE": 8806,
      "Ġaccessed": 8807,
      "Ġsubst": 8808,
      "dbc": 8809,
      "Ġdomain": 8810,
      "uffle": 8811,
      "Ġendblock": 8812,
      "Ġenvvar": 8813,
      "=[])": 8814,
      "Diff": 8815,
      "ColumnCollection": 8816,
      "DIS": 8817,
      "ĠDataFrame": 8818,
      "releases": 8819,
      "([\"*": 8820,
      "LOW": 8821,
      "ĠstillBad": 8822,
      "ĠCreateTable": 8823,
      "LineDocstrings": 8824,
      "Ġlookup": 8825,
      "Tasks": 8826,
      "ADirectoryError": 8827,
      "contentMediaType": 8828,
      "'ll": 8829,
      ".)": 8830,
      "FC": 8831,
      "Jar": 8832,
      "Shell": 8833,
      "VI": 8834,
      "Who": 8835,
      "]|": 8836,
      "ĊĊĠĠĠĠĠĠĠĠ": 8837,
      "Ġtensor": 8838,
      "included": 8839,
      "tet": 8840,
      "delimiter": 8841,
      "Ġihook": 8842,
      "Ġblah": 8843,
      "unked": 8844,
      "Ġsur": 8845,
      "Ġ---": 8846,
      "('\"": 8847,
      "005": 8848,
      "octet": 8849,
      "Ġpyproject": 8850,
      "Ġgre": 8851,
      "Ġnor": 8852,
      "learning": 8853,
      "ĠDXGI": 8854,
      "ĠĠĠĠĠĠĠĠĠĠĠĠĠĠĠĠĠĠĠĠĠĠĠĠĠĠĠ": 8855,
      "TENT": 8856,
      "ledb": 8857,
      "placeholder": 8858,
      "]]=": 8859,
      "packaging": 8860,
      "ĠUndefined": 8861,
      "details": 8862,
      "Ġbuiltin": 8863,
      "Ġreflect": 8864,
      "Ġauthorization": 8865,
      "interface": 8866,
      "posal": 8867,
      "ĠForwardRef": 8868,
      "ppm": 8869,
      "underline": 8870,
      "Ġroles": 8871,
      "`).\\": 8872,
      "transparent": 8873,
      "Multiple": 8874,
      "bgcolor": 8875,
      "*)": 8876,
      "=\\": 8877,
      "Auto": 8878,
      "Oracle": 8879,
      "Ġquoted": 8880,
      "Ġjob": 8881,
      "tionItem": 8882,
      "Ġfore": 8883,
      "Ġ{\\": 8884,
      "Ġsecret": 8885,
      "Ġpair": 8886,
      "Device": 8887,
      "ĠUsed": 8888,
      "lists": 8889,
      "Ġimmutable": 8890,
      "compressed": 8891,
      "TestFile": 8892,
      "Ġpytestpm": 8893,
      "eek": 8894,
      "spinner": 8895,
      "Ġcheckout": 8896,
      "views": 8897,
      "includes": 8898,
      "expansion": 8899,
      "TextIO": 8900,
      "what": 8901,
      "ĠIsADirectoryError": 8902,
      "8601": 8903,
      "ĠMarkdown": 8904,
      "Ġconditions": 8905,
      "website": 8906,
      "between": 8907,
      "ExecuteOptionsParameter": 8908,
      "/)": 8909,
      "Lis": 8910,
      "NE": 8911,
      "emit": 8912,
      "ki": 8913,
      "qtables": 8914,
      "zInfo": 8915,
      "Ġrollback": 8916,
      "tection": 8917,
      "tific": 8918,
      "Ġcabc": 8919,
      "Ġfri": 8920,
      "getstate": 8921,
      "nected": 8922,
      "itemSchema": 8923,
      "ĠFe": 8924,
      "bjpeg": 8925,
      "Ġentities": 8926,
      "Ġanimation": 8927,
      "Ġlists": 8928,
      "otal": 8929,
      "ImageFont": 8930,
      "})'": 8931,
      "AnyStr": 8932,
      "Ġruns": 8933,
      "Ġcomma": 8934,
      "ĠTypeEngine": 8935,
      "Ġgenerating": 8936,
      "ĠEach": 8937,
      "IdConnect": 8938,
      "phrase": 8939,
      "2020": 8940,
      "384": 8941,
      "ListIterable": 8942,
      "###": 8943,
      "Bomb": 8944,
      "Ġcycle": 8945,
      "ValuesListIterable": 8946,
      "RenderResult": 8947,
      "ĠThread": 8948,
      "NGTH": 8949,
      "WAIT": 8950,
      "persist": 8951,
      "DecompressionBomb": 8952,
      "ĠFIXME": 8953,
      "*,\\": 8954,
      "CX": 8955,
      "Outer": 8956,
      "]+": 8957,
      "border": 8958,
      "hstore": 8959,
      "justed": 8960,
      "};": 8961,
      "indices": 8962,
      "demo": 8963,
      "thr": 8964,
      "Ġ\"\\\\": 8965,
      "Ġthird": 8966,
      "Ġrewrite": 8967,
      "Ġisatty": 8968,
      "terate": 8969,
      "Ġifd": 8970,
      "adic": 8971,
      "pypy": 8972,
      "('{{": 8973,
      "ĠOperator": 8974,
      "Ġgi": 8975,
      "Ġcompilation": 8976,
      "Ġundefined": 8977,
      "baseline": 8978,
      "importance": 8979,
      "boss": 8980,
      "Processed": 8981,
      "RELEASE": 8982,
      "ClassWith": 8983,
      "saves": 8984,
      "DED": 8985,
      "ROT": 8986,
      "UNORM": 8987,
      "Prepar": 8988,
      "Ġ}}{%": 8989,
      "cccccccccccccccc": 8990,
      "repeat": 8991,
      "specifications": 8992,
      "ĠComment": 8993,
      "(\"./": 8994,
      "MySQLDialect": 8995,
      "AUTO": 8996,
      "Ġmonth": 8997,
      "ĠGitHub": 8998,
      "ISSING": 8999,
      ":-": 9000,
      "=\"\"\"": 9001,
      "?\",": 9002,
      "Api": 9003,
      "CWORD": 9004,
      "GA": 9005,
      "LL": 9006,
      "embed": 9007,
      "greg": 9008,
      "photo": 9009,
      "Ġhe": 9010,
      "setting": 9011,
      "reque": 9012,
      "ario": 9013,
      "Ġball": 9014,
      "ĊĠĠĠĠĠĠĠĠĠĠĠĠĠĠĠĠĠĠĠĠĠ": 9015,
      "ctionaries": 9016,
      "land": 9017,
      "Ġresample": 9018,
      "ĠPAS": 9019,
      "upError": 9020,
      "Ġmeasure": 9021,
      "ĠReport": 9022,
      "Ġ31": 9023,
      "ophase": 9024,
      "ĠImageMode": 9025,
      "licy": 9026,
      "Ġweights": 9027,
      "ĠGroup": 9028,
      "5535": 9029,
      "wraps": 9030,
      "Ġwasn": 9031,
      "truecolor": 9032,
      "Ġreflected": 9033,
      "Ġauthor": 9034,
      "CreateTable": 9035,
      "cenario": 9036,
      "symbols": 9037,
      "Ġdelta": 9038,
      "Ġ')]`,": 9039,
      "bytecode": 9040,
      "TIFF": 9041,
      "Ġcomparisons": 9042,
      "Ġtransparent": 9043,
      "andboxed": 9044,
      "reeTypeFont": 9045,
      "ROTATE": 9046,
      "'[": 9047,
      "51": 9048,
      ":\",": 9049,
      "Aliased": 9050,
      "URE": 9051,
      "basi": 9052,
      "histogram": 9053,
      "oke": 9054,
      "purl": 9055,
      "ãĥ": 9056,
      "inside": 9057,
      "rehen": 9058,
      "alm": 9059,
      "Ġ{_": 9060,
      "ĠIDENTITY": 9061,
      "concepts": 9062,
      "Ġexcluded": 9063,
      "exact": 9064,
      "Ġhuman": 9065,
      "readouterr": 9066,
      "\"]}": 9067,
      "Second": 9068,
      "]]]:": 9069,
      "Ġ{}).": 9070,
      "Ġaddition": 9071,
      "whereclause": 9072,
      "Ġupdates": 9073,
      "suppress": 9074,
      "Subset": 9075,
      "ĠCreateView": 9076,
      "adapters": 9077,
      "ĠSeriali": 9078,
      "ĠCommon": 9079,
      "Ġcommits": 9080,
      "ĠPreparedRequest": 9081,
      "Failed": 9082,
      "Ġpopulated": 9083,
      "Account": 9084,
      "Ġdynamically": 9085,
      "implementation": 9086,
      "Ġconsidered": 9087,
      "ĠComparableEntity": 9088,
      "basics": 9089,
      "\"*": 9090,
      "46": 9091,
      "47": 9092,
      "=\"\")": 9093,
      "BS": 9094,
      "OI": 9095,
      "mf": 9096,
      "Ġ$": 9097,
      "Ġvenv": 9098,
      "sth": 9099,
      "Ġflexi": 9100,
      "annotate": 9101,
      "unchanged": 9102,
      "Ġwin": 9103,
      "Ġsimp": 9104,
      "oodbc": 9105,
      "(\"'": 9106,
      "dib": 9107,
      "divide": 9108,
      "dimension": 9109,
      "dimensions": 9110,
      "ĠFixture": 9111,
      "Ġproble": 9112,
      "Ġgive": 9113,
      "Ġcomparing": 9114,
      "ĠImageGrab": 9115,
      "Ġunsupported": 9116,
      "Ġtimestamp": 9117,
      "://{": 9118,
      "argnames": 9119,
      "Send": 9120,
      "ĠASCII": 9121,
      "pider": 9122,
      "Ġreferred": 9123,
      "ĠParse": 9124,
      "twophase": 9125,
      "Ġdropout": 9126,
      "DeclarativeBase": 9127,
      "ExecutionContext": 9128,
      "legal": 9129,
      "Converter": 9130,
      "AST": 9131,
      "Emoji": 9132,
      "Handle": 9133,
      "KT": 9134,
      "SH": 9135,
      "SPACE": 9136,
      "ba": 9137,
      "jar": 9138,
      "sked": 9139,
      "small": 9140,
      "Ġtell": 9141,
      "Ġtiming": 9142,
      "deterministic": 9143,
      "Ġplease": 9144,
      "Ġwindows": 9145,
      "__(\"": 9146,
      "approx": 9147,
      "getcolors": 9148,
      "vicon": 9149,
      "(\"#": 9150,
      "(\"âĶģ": 9151,
      "Ġhigher": 9152,
      "('.')": 9153,
      "ĠSIM": 9154,
      "ĠFOR": 9155,
      "ĠMA": 9156,
      "Ġdigest": 9157,
      "acledb": 9158,
      "LED": 9159,
      "leton": 9160,
      "ĠGimp": 9161,
      "ĠProxied": 9162,
      "ClassVar": 9163,
      "Ġindexes": 9164,
      "Pytester": 9165,
      "'}}],": 9166,
      "support": 9167,
      "expressions": 9168,
      "Subclass": 9169,
      "rud": 9170,
      "positories": 9171,
      "ĠbadAllowed": 9172,
      "nail": 9173,
      "xxxxxxxxxxxxxxxxxxxxxxxxxxxxxxxx": 9174,
      "umbnail": 9175,
      "warmup": 9176,
      "thirdparty": 9177,
      "Ġplural": 9178,
      "plied": 9179,
      "Ġestab": 9180,
      "ĠRUF": 9181,
      "references": 9182,
      "Recursive": 9183,
      "ĠStashKey": 9184,
      "(\"âĶģ\",": 9185,
      "++": 9186,
      ":\")": 9187,
[...]
